{
  "version": "1.0",
  "truncation": null,
  "padding": null,
  "added_tokens": [
    {
      "id": 0,
      "content": "<pad>",
      "single_word": false,
      "lstrip": false,
      "rstrip": false,
      "normalized": false,
      "special": true
    },
    {
      "id": 1,
      "content": "<bos>",
      "single_word": false,
      "lstrip": false,
      "rstrip": false,
      "normalized": false,
      "special": true
    },
    {
      "id": 2,
      "content": "<eos>",
      "single_word": false,
      "lstrip": false,
      "rstrip": false,
      "normalized": false,
      "special": true
    },
    {
      "id": 3,
      "content": "<unk>",
      "single_word": false,
      "lstrip": false,
      "rstrip": false,
      "normalized": false,
      "special": true
    }
  ],
  "normalizer": null,
  "pre_tokenizer": {
    "type": "ByteLevel",
    "add_prefix_space": false,
    "trim_offsets": true,
    "use_regex": true
  },
  "post_processor": {
    "type": "TemplateProcessing",
    "single": [
      {
        "SpecialToken": {
          "id": "<bos>",
          "type_id": 0
        }
      },
      {
        "Sequence": {
          "id": "A",
          "type_id": 0
        }
      },
      {
        "SpecialToken": {
          "id": "<eos>",
          "type_id": 0
        }
      }
    ],
    "pair": [
      {
        "Sequence": {
          "id": "A",
          "type_id": 0
        }
      },
      {
        "Sequence": {
          "id": "B",
          "type_id": 1
        }
      }
    ],
    "special_tokens": {
      "<bos>": {
        "id": "<bos>",
        "ids": [
          1
        ],
        "tokens": [
          "<bos>"
        ]
      },
      "<eos>": {
        "id": "<eos>",
        "ids": [
          2
        ],
        "tokens": [
          "<eos>"
        ]
      }
    }
  },
  "decoder": {
    "type": "ByteLevel",
    "add_prefix_space": true,
    "trim_offsets": true,
    "use_regex": true
  },
  "model": {
    "type": "BPE",
    "dropout": null,
    "unk_token": "<unk>",
    "continuing_subword_prefix": null,
    "end_of_word_suffix": null,
    "fuse_unk": false,
    "byte_fallback": false,
    "ignore_merges": false,
    "vocab": {
      "<pad>": 0,
      "<bos>": 1,
      "<eos>": 2,
      "<unk>": 3,
      "!": 4,
      "\"": 5,
      "#": 6,
      "$": 7,
      "%": 8,
      "&": 9,
      "'": 10,
      "(": 11,
      ")": 12,
      "*": 13,
      "+": 14,
      ",": 15,
      "-": 16,
      ".": 17,
      "/": 18,
      "0": 19,
      "1": 20,
      "2": 21,
      "3": 22,
      "4": 23,
      "5": 24,
      "6": 25,
      "7": 26,
      "8": 27,
      "9": 28,
      ":": 29,
      ";": 30,
      "<": 31,
      "=": 32,
      ">": 33,
      "?": 34,
      "@": 35,
      "A": 36,
      "B": 37,
      "C": 38,
      "D": 39,
      "E": 40,
      "F": 41,
      "G": 42,
      "H": 43,
      "I": 44,
      "J": 45,
      "K": 46,
      "L": 47,
      "M": 48,
      "N": 49,
      "O": 50,
      "P": 51,
      "Q": 52,
      "R": 53,
      "S": 54,
      "T": 55,
      "U": 56,
      "V": 57,
      "W": 58,
      "X": 59,
      "Y": 60,
      "Z": 61,
      "[": 62,
      "\\": 63,
      "]": 64,
      "^": 65,
      "_": 66,
      "`": 67,
      "a": 68,
      "b": 69,
      "c": 70,
      "d": 71,
      "e": 72,
      "f": 73,
      "g": 74,
      "h": 75,
      "i": 76,
      "j": 77,
      "k": 78,
      "l": 79,
      "m": 80,
      "n": 81,
      "o": 82,
      "p": 83,
      "q": 84,
      "r": 85,
      "s": 86,
      "t": 87,
      "u": 88,
      "v": 89,
      "w": 90,
      "x": 91,
      "y": 92,
      "z": 93,
      "{": 94,
      "|": 95,
      "}": 96,
      "~": 97,
      "¡": 98,
      "¢": 99,
      "£": 100,
      "¤": 101,
      "¥": 102,
      "¦": 103,
      "§": 104,
      "¨": 105,
      "©": 106,
      "ª": 107,
      "«": 108,
      "¬": 109,
      "®": 110,
      "¯": 111,
      "°": 112,
      "±": 113,
      "²": 114,
      "³": 115,
      "´": 116,
      "µ": 117,
      "¶": 118,
      "·": 119,
      "¸": 120,
      "¹": 121,
      "º": 122,
      "»": 123,
      "¼": 124,
      "½": 125,
      "¾": 126,
      "¿": 127,
      "À": 128,
      "Á": 129,
      "Â": 130,
      "Ã": 131,
      "Ä": 132,
      "Å": 133,
      "Æ": 134,
      "Ç": 135,
      "È": 136,
      "É": 137,
      "Ê": 138,
      "Ë": 139,
      "Ì": 140,
      "Í": 141,
      "Î": 142,
      "Ï": 143,
      "Ð": 144,
      "Ñ": 145,
      "Ò": 146,
      "Ó": 147,
      "Ô": 148,
      "Õ": 149,
      "Ö": 150,
      "×": 151,
      "Ø": 152,
      "Ù": 153,
      "Ú": 154,
      "Û": 155,
      "Ü": 156,
      "Ý": 157,
      "Þ": 158,
      "ß": 159,
      "à": 160,
      "á": 161,
      "â": 162,
      "ã": 163,
      "ä": 164,
      "å": 165,
      "æ": 166,
      "ç": 167,
      "è": 168,
      "é": 169,
      "ê": 170,
      "ë": 171,
      "ì": 172,
      "í": 173,
      "î": 174,
      "ï": 175,
      "ð": 176,
      "ñ": 177,
      "ò": 178,
      "ó": 179,
      "ô": 180,
      "õ": 181,
      "ö": 182,
      "÷": 183,
      "ø": 184,
      "ù": 185,
      "ú": 186,
      "û": 187,
      "ü": 188,
      "ý": 189,
      "þ": 190,
      "ÿ": 191,
      "Ā": 192,
      "ā": 193,
      "Ă": 194,
      "ă": 195,
      "Ą": 196,
      "ą": 197,
      "Ć": 198,
      "ć": 199,
      "Ĉ": 200,
      "ĉ": 201,
      "Ċ": 202,
      "ċ": 203,
      "Č": 204,
      "č": 205,
      "Ď": 206,
      "ď": 207,
      "Đ": 208,
      "đ": 209,
      "Ē": 210,
      "ē": 211,
      "Ĕ": 212,
      "ĕ": 213,
      "Ė": 214,
      "ė": 215,
      "Ę": 216,
      "ę": 217,
      "Ě": 218,
      "ě": 219,
      "Ĝ": 220,
      "ĝ": 221,
      "Ğ": 222,
      "ğ": 223,
      "Ġ": 224,
      "ġ": 225,
      "Ģ": 226,
      "ģ": 227,
      "Ĥ": 228,
      "ĥ": 229,
      "Ħ": 230,
      "ħ": 231,
      "Ĩ": 232,
      "ĩ": 233,
      "Ī": 234,
      "ī": 235,
      "Ĭ": 236,
      "ĭ": 237,
      "Į": 238,
      "į": 239,
      "İ": 240,
      "ı": 241,
      "Ĳ": 242,
      "ĳ": 243,
      "Ĵ": 244,
      "ĵ": 245,
      "Ķ": 246,
      "ķ": 247,
      "ĸ": 248,
      "Ĺ": 249,
      "ĺ": 250,
      "Ļ": 251,
      "ļ": 252,
      "Ľ": 253,
      "ľ": 254,
      "Ŀ": 255,
      "ŀ": 256,
      "Ł": 257,
      "ł": 258,
      "Ń": 259,
      "Ġt": 260,
      "Ġa": 261,
      "he": 262,
      "in": 263,
      "re": 264,
      "Ġthe": 265,
      "on": 266,
      "er": 267,
      "Ġo": 268,
      "at": 269,
      "Ġs": 270,
      "en": 271,
      "Ġc": 272,
      "Ġw": 273,
      "es": 274,
      "is": 275,
      "nd": 276,
      "or": 277,
      "it": 278,
      "Ġp": 279,
      "ed": 280,
      "al": 281,
      "Ġof": 282,
      "Ġb": 283,
      "Ġf": 284,
      "an": 285,
      "Ġin": 286,
      "ar": 287,
      "ing": 288,
      "Ġm": 289,
      "ou": 290,
      "ic": 291,
      "Ġand": 292,
      "Ġto": 293,
      "ion": 294,
      "Ġd": 295,
      "ro": 296,
      "le": 297,
      "as": 298,
      "ent": 299,
      "Ġh": 300,
      "Ġth": 301,
      "ct": 302,
      "Ġre": 303,
      "Ġe": 304,
      "il": 305,
      "ĠT": 306,
      "om": 307,
      "Ġl": 308,
      "Ġn": 309,
      "st": 310,
      "ve": 311,
      "ly": 312,
      "Ġbe": 313,
      "ĠA": 314,
      "ol": 315,
      "Ġis": 316,
      "ation": 317,
      "se": 318,
      "Ġg": 319,
      "id": 320,
      "ĠS": 321,
      "im": 322,
      "ce": 323,
      "ut": 324,
      "et": 325,
      "ra": 326,
      "ĠC": 327,
      "ot": 328,
      "ch": 329,
      "ĠI": 330,
      "ur": 331,
      "Ġfor": 332,
      "ow": 333,
      "ig": 334,
      "Ġon": 335,
      "Ġthat": 336,
      "Ġu": 337,
      "ver": 338,
      "âĢ": 339,
      "ĠThe": 340,
      "ir": 341,
      "Ġst": 342,
      "am": 343,
      "ul": 344,
      "ĠM": 345,
      "ay": 346,
      "el": 347,
      "Ġas": 348,
      "ad": 349,
      "ith": 350,
      "Ġ1": 351,
      "Ġpro": 352,
      "her": 353,
      "Ġcon": 354,
      "ĠP": 355,
      "Ġ(": 356,
      "Ġan": 357,
      "Ġy": 358,
      "Ġwith": 359,
      "Ġwh": 360,
      "Ġare": 361,
      "ter": 362,
      "Ġor": 363,
      "if": 364,
      "Ġit": 365,
      "Ġal": 366,
      "ĠB": 367,
      "ment": 368,
      "ist": 369,
      "od": 370,
      "th": 371,
      "ers": 372,
      "ge": 373,
      "op": 374,
      "Ġde": 375,
      "ĠH": 376,
      "ate": 377,
      "ies": 378,
      "ĠW": 379,
      "us": 380,
      "ere": 381,
      "ill": 382,
      "um": 383,
      "Ġex": 384,
      "ab": 385,
      "Ġcom": 386,
      "ect": 387,
      "ity": 388,
      "res": 389,
      "ĠD": 390,
      "Ġby": 391,
      "Ġhe": 392,
      "os": 393,
      "est": 394,
      "rom": 395,
      "ess": 396,
      "ĠF": 397,
      "ri": 398,
      "ore": 399,
      "ld": 400,
      "Ġsu": 401,
      "em": 402,
      "Ġyou": 403,
      "Ġ-": 404,
      "ĠE": 405,
      "ĠR": 406,
      "Ġha": 407,
      "Ġat": 408,
      "ac": 409,
      "Ġwas": 410,
      "ive": 411,
      "Ġv": 412,
      "nt": 413,
      "qu": 414,
      "Ġ2": 415,
      "ĠN": 416,
      "pp": 417,
      "ain": 418,
      "Ġfrom": 419,
      "igh": 420,
      "ant": 421,
      "ke": 422,
      "ud": 423,
      "oc": 424,
      "and": 425,
      "iv": 426,
      "Ġne": 427,
      "ĠG": 428,
      "Ġse": 429,
      "ort": 430,
      "ĠL": 431,
      "Ġch": 432,
      "Ġr": 433,
      "un": 434,
      "00": 435,
      "ical": 436,
      "ure": 437,
      "Ġnot": 438,
      "ial": 439,
      "art": 440,
      "Ġcan": 441,
      "Ġhave": 442,
      "Ġle": 443,
      "og": 444,
      "Ġsp": 445,
      "ĠIn": 446,
      "Ġen": 447,
      "Ġsh": 448,
      "ĠO": 449,
      "ight": 450,
      "ich": 451,
      "'s": 452,
      "all": 453,
      "pt": 454,
      "âĢĻ": 455,
      "ĠJ": 456,
      "rou": 457,
      "Ġthis": 458,
      "ould": 459,
      "Ġab": 460,
      "ther": 461,
      "gh": 462,
      "Ġ\"": 463,
      "ost": 464,
      "ĠâĢ": 465,
      "our": 466,
      "ions": 467,
      "ated": 468,
      "ĠU": 469,
      "Ġwor": 470,
      "ear": 471,
      "ust": 472,
      "ine": 473,
      "ard": 474,
      "ome": 475,
      "ia": 476,
      "ell": 477,
      "per": 478,
      "out": 479,
      "ff": 480,
      "ans": 481,
      "ast": 482,
      "ec": 483,
      "act": 484,
      "Ġim": 485,
      "Ġint": 486,
      "Ġwe": 487,
      "Ġus": 488,
      "Ġtheir": 489,
      "Ġwhich": 490,
      "Ġpl": 491,
      "du": 492,
      "pl": 493,
      "ew": 494,
      "Ġcont": 495,
      "ide": 496,
      "age": 497,
      "ous": 498,
      "ĠTh": 499,
      "Ġ19": 500,
      "ag": 501,
      "iz": 502,
      "are": 503,
      "Ġdis": 504,
      "Ġall": 505,
      "cc": 506,
      "Ġk": 507,
      "ib": 508,
      "Ġwhe": 509,
      "ak": 510,
      "Ġad": 511,
      "orm": 512,
      "ap": 513,
      "ru": 514,
      "ong": 515,
      "vel": 516,
      "end": 517,
      "Ġthey": 518,
      "ary": 519,
      "ater": 520,
      "ations": 521,
      "Ġmore": 522,
      "Ġwere": 523,
      "Ġhas": 524,
      "Ġinc": 525,
      "ult": 526,
      "ip": 527,
      "Ġcomp": 528,
      "Ġres": 529,
      "ood": 530,
      "Ġwill": 531,
      "Ġper": 532,
      "ire": 533,
      "Ġother": 534,
      "Ġdo": 535,
      "Ġcl": 536,
      "ence": 537,
      "Ġbut": 538,
      "ual": 539,
      "so": 540,
      "ep": 541,
      "ks": 542,
      "Ġman": 543,
      "ry": 544,
      "Ġone": 545,
      "ild": 546,
      "able": 547,
      "ign": 548,
      "ĠSt": 549,
      "ose": 550,
      "ance": 551,
      "ind": 552,
      "Ġar": 553,
      "Ġj": 554,
      "ber": 555,
      "ress": 556,
      "ction": 557,
      "ace": 558,
      "reat": 559,
      "Ġme": 560,
      "ass": 561,
      "ach": 562,
      "ase": 563,
      "Ġun": 564,
      "ice": 565,
      "ord": 566,
      "ame": 567,
      "Ġpart": 568,
      "ĠK": 569,
      "Ġapp": 570,
      "av": 571,
      ").": 572,
      "Ġhis": 573,
      "ents": 574,
      "ount": 575,
      "ory": 576,
      "âĢĿ": 577,
      "Ġimp": 578,
      "au": 579,
      "Ġwho": 580,
      "Ġcomm": 581,
      "Ġalso": 582,
      "ĠâĢľ": 583,
      "ub": 584,
      "Ġev": 585,
      "ish": 586,
      "Ġinf": 587,
      "Ġout": 588,
      "olog": 589,
      "Ġte": 590,
      "ake": 591,
      "Ġpre": 592,
      "ack": 593,
      "ition": 594,
      "Ġso": 595,
      "Ġyour": 596,
      "ĠV": 597,
      "ens": 598,
      "ĠCh": 599,
      "ime": 600,
      "Ġabout": 601,
      "ci": 602,
      "one": 603,
      "ite": 604,
      "very": 605,
      "ian": 606,
      "ors": 607,
      "ĠIt": 608,
      "ree": 609,
      "ok": 610,
      "ound": 611,
      "ces": 612,
      "Ġstud": 613,
      "mer": 614,
      "Ġmay": 615,
      "Ġyear": 616,
      "Ġsy": 617,
      "ric": 618,
      "Ġthan": 619,
      "ue": 620,
      "ile": 621,
      "ates": 622,
      "Ġits": 623,
      "Ġup": 624,
      "Ġrec": 625,
      "Ġpe": 626,
      "Ġbeen": 627,
      "ĠThis": 628,
      "ang": 629,
      "own": 630,
      "vers": 631,
      "Ġbec": 632,
      "Ġhad": 633,
      "Ġthem": 634,
      "Ġsome": 635,
      "ail": 636,
      "Ġqu": 637,
      "Ġ3": 638,
      "Ġag": 639,
      "Ġthere": 640,
      "ons": 641,
      "Ġgo": 642,
      "ays": 643,
      "low": 644,
      "nder": 645,
      "ie": 646,
      "ike": 647,
      "erv": 648,
      "ough": 649,
      "rit": 650,
      "Ġinto": 651,
      "Ġ200": 652,
      "tern": 653,
      "Ġtra": 654,
      "ople": 655,
      "ph": 656,
      "ational": 657,
      "rough": 658,
      "lect": 659,
      "Ġtw": 660,
      "lic": 661,
      "Ġra": 662,
      "ms": 663,
      "Ġnew": 664,
      "ond": 665,
      "lud": 666,
      "ren": 667,
      "iff": 668,
      "irst": 669,
      "te": 670,
      "Ġrep": 671,
      "ĠY": 672,
      "ject": 673,
      "Ġwhen": 674,
      "Ġwould": 675,
      "ings": 676,
      "Ġgen": 677,
      "Ġkn": 678,
      "ts": 679,
      "ove": 680,
      "Ġover": 681,
      "Ġind": 682,
      "Ġthese": 683,
      "Ġcons": 684,
      "..": 685,
      "Ġsa": 686,
      "Ġbl": 687,
      "Ġwork": 688,
      "Ġcol": 689,
      "Ġdes": 690,
      "hed": 691,
      "Ġro": 692,
      "ĠUn": 693,
      "Ġtime": 694,
      "Ġact": 695,
      "ally": 696,
      "velop": 697,
      "ob": 698,
      "ments": 699,
      "ll": 700,
      "Ġunder": 701,
      "ys": 702,
      "stem": 703,
      "Ġbet": 704,
      "Ġmost": 705,
      "we": 706,
      "red": 707,
      "wn": 708,
      "Ġuse": 709,
      "Ġpeople": 710,
      "ific": 711,
      "ause": 712,
      "ities": 713,
      "Ġrel": 714,
      "Ġ20": 715,
      "),": 716,
      "iss": 717,
      "Ġacc": 718,
      "Ġsuch": 719,
      "ative": 720,
      "Ġdiff": 721,
      "Ġno": 722,
      "ook": 723,
      "Ġinclud": 724,
      "Ġfirst": 725,
      "Ġprov": 726,
      "ning": 727,
      "Ġeff": 728,
      "Ġhow": 729,
      "Ġany": 730,
      "Ġif": 731,
      "Ġoff": 732,
      "les": 733,
      "Ġonly": 734,
      "ced": 735,
      "Ġspec": 736,
      "amp": 737,
      "ĠHe": 738,
      "Ġtr": 739,
      "ov": 740,
      "Ġtwo": 741,
      "alth": 742,
      "erm": 743,
      "Ġlike": 744,
      "Ġph": 745,
      "ious": 746,
      "Ġexp": 747,
      "Ġdevelop": 748,
      "Ġam": 749,
      "rib": 750,
      "ĠAs": 751,
      "Ġpo": 752,
      "ied": 753,
      "ular": 754,
      "Ġthrough": 755,
      "Ġprodu": 756,
      "fter": 757,
      "Ġ4": 758,
      "Ġsur": 759,
      "Ġchild": 760,
      "arch": 761,
      "Ġreg": 762,
      "oss": 763,
      "cess": 764,
      "Ġob": 765,
      "Ġneed": 766,
      "Ġmany": 767,
      "int": 768,
      "Ġused": 769,
      "ating": 770,
      "Ġour": 771,
      "uc": 772,
      "Ġsystem": 773,
      "ics": 774,
      "Ġco": 775,
      "uring": 776,
      "als": 777,
      "iet": 778,
      "Ġem": 779,
      "Ġsc": 780,
      "ower": 781,
      "ram": 782,
      "yp": 783,
      "ath": 784,
      "Ġwhat": 785,
      "rop": 786,
      "Ġyears": 787,
      "Ġac": 788,
      "Ġatt": 789,
      "round": 790,
      "aw": 791,
      "ert": 792,
      "ne": 793,
      "ution": 794,
      "cy": 795,
      "ink": 796,
      "Ġass": 797,
      "ise": 798,
      "Ġwater": 799,
      "ark": 800,
      "ĠWh": 801,
      "Ġdec": 802,
      "hen": 803,
      "oth": 804,
      "meric": 805,
      "Ġ5": 806,
      "ited": 807,
      "Ġadd": 808,
      "ased": 809,
      "ten": 810,
      "old": 811,
      "Ġpol": 812,
      "ility": 813,
      "Ġpr": 814,
      "Ġsub": 815,
      "ife": 816,
      "ĠAn": 817,
      "ble": 818,
      "sel": 819,
      "ful": 820,
      "ible": 821,
      "ology": 822,
      "ween": 823,
      "ists": 824,
      "Ġinter": 825,
      "row": 826,
      "Ġinv": 827,
      "ange": 828,
      "ormation": 829,
      "ade": 830,
      "Ġcould": 831,
      "Ġrese": 832,
      "Ġshould": 833,
      "ident": 834,
      "gan": 835,
      "Ġsupp": 836,
      "fore": 837,
      "ool": 838,
      "ered": 839,
      "Ġhel": 840,
      "Ġbetween": 841,
      "Ġrem": 842,
      "Ġ18": 843,
      "ures": 844,
      "Ġpres": 845,
      "Ġfe": 846,
      "ĠAmeric": 847,
      "Ġwhere": 848,
      "Ġmet": 849,
      "ĠPro": 850,
      "Ġhelp": 851,
      "ft": 852,
      "uch": 853,
      "Ġfl": 854,
      "ĠAl": 855,
      "ism": 856,
      "ivers": 857,
      "vern": 858,
      "Ġcount": 859,
      "Ġdiffere": 860,
      "ick": 861,
      "hes": 862,
      "Ġnum": 863,
      "Ġcent": 864,
      "ins": 865,
      "its": 866,
      "ron": 867,
      "ĠFor": 868,
      "ĠCom": 869,
      "Ġmed": 870,
      "ily": 871,
      "Ġform": 872,
      "gy": 873,
      "ever": 874,
      "ex": 875,
      ".\"": 876,
      "ict": 877,
      "Ġtrans": 878,
      "ract": 879,
      "chn": 880,
      "Ġfound": 881,
      "Ġwell": 882,
      "Ġlar": 883,
      "Ġear": 884,
      "Ġ201": 885,
      "Ġsm": 886,
      "Ġref": 887,
      "Ġhum": 888,
      "Ġsaid": 889,
      "Ġhigh": 890,
      "Ġpub": 891,
      "Ġmod": 892,
      "Ġcall": 893,
      "ature": 894,
      "land": 895,
      "ural": 896,
      "ants": 897,
      "cent": 898,
      "urn": 899,
      "ĠEn": 900,
      "ines": 901,
      "chool": 902,
      "ved": 903,
      "Ġafter": 904,
      "||": 905,
      "Ġpers": 906,
      "oy": 907,
      "Ġthose": 908,
      "Ġlong": 909,
      "Ġdet": 910,
      "ĠRe": 911,
      "ually": 912,
      "cer": 913,
      "Ġjust": 914,
      "Ġinst": 915,
      "cept": 916,
      "con": 917,
      "itt": 918,
      "ĠIf": 919,
      "Ġdef": 920,
      "Ġinformation": 921,
      "Ġed": 922,
      "Ġprog": 923,
      "vent": 924,
      "Ġloc": 925,
      "Ġeven": 926,
      "eral": 927,
      "Ġsign": 928,
      "Ġbu": 929,
      "Ġeffect": 930,
      "other": 931,
      "Ġworld": 932,
      "Ġmake": 933,
      "ĠWe": 934,
      "ĠCon": 935,
      "ases": 936,
      "Ġext": 937,
      "ork": 938,
      "Ġher": 939,
      "Ġimport": 940,
      "ically": 941,
      "Ġdist": 942,
      "Ġ|": 943,
      "Ġpat": 944,
      "iew": 945,
      "Ġhealth": 946,
      "Ġbecause": 947,
      "Ġright": 948,
      "Ġknow": 949,
      "ds": 950,
      "roup": 951,
      "Ġ6": 952,
      "led": 953,
      "Ġcell": 954,
      "Ġdisc": 955,
      "Ġget": 956,
      "Ġthen": 957,
      "Ġfact": 958,
      "ĠNew": 959,
      "Ġsim": 960,
      "iron": 961,
      "io": 962,
      "Ġincre": 963,
      "ues": 964,
      "ives": 965,
      "Ġsame": 966,
      "ars": 967,
      "Ġvery": 968,
      "Ġsee": 969,
      "Ġcommun": 970,
      "ollow": 971,
      "Ġway": 972,
      "imes": 973,
      "Ġbeing": 974,
      "ck": 975,
      "Ġsec": 976,
      "Ġresp": 977,
      "Ġpartic": 978,
      "19": 979,
      "ward": 980,
      "Ġca": 981,
      "ata": 982,
      "ĠHow": 983,
      "Ġsci": 984,
      "Ġexper": 985,
      "The": 986,
      "ĠAr": 987,
      "ruct": 988,
      "ample": 989,
      "Ġaut": 990,
      "Ġfam": 991,
      "iversity": 992,
      "aking": 993,
      "Ġdep": 994,
      "Ġmuch": 995,
      "hing": 996,
      "Ġduring": 997,
      "omet": 998,
      "Ġrequ": 999,
      "ef": 1000,
      "ized": 1001,
      "ĠBut": 1002,
      "get": 1003,
      "ather": 1004,
      "Ġmon": 1005,
      "Ġresult": 1006,
      "Ġmem": 1007,
      "Ġeach": 1008,
      "ran": 1009,
      "Ġtechn": 1010,
      "Ġstate": 1011,
      "ection": 1012,
      "ness": 1013,
      "Ġke": 1014,
      "ince": 1015,
      "Ġgra": 1016,
      "Ġdifferent": 1017,
      "Ġent": 1018,
      "Ġmade": 1019,
      "ix": 1020,
      "ĠThey": 1021,
      "ages": 1022,
      "Ġart": 1023,
      "Ġset": 1024,
      "Ġevery": 1025,
      "Ġcar": 1026,
      "Ġagain": 1027,
      "Ġvar": 1028,
      "Ġcre": 1029,
      "Ġgovern": 1030,
      "Ġown": 1031,
      "Ġsoc": 1032,
      "ty": 1033,
      "Ġ199": 1034,
      "omen": 1035,
      "und": 1036,
      "Ġchildren": 1037,
      "gg": 1038,
      "Ġtyp": 1039,
      "ĠâĢĵ": 1040,
      "viron": 1041,
      "irect": 1042,
      "Ġ7": 1043,
      "000": 1044,
      "ished": 1045,
      "Ġlear": 1046,
      "Ġpop": 1047,
      "arm": 1048,
      "Ġcur": 1049,
      "ined": 1050,
      "Ġback": 1051,
      "rol": 1052,
      "'t": 1053,
      "form": 1054,
      "Ġprocess": 1055,
      "Ġstudy": 1056,
      "ven": 1057,
      "ros": 1058,
      "Ġtest": 1059,
      "Ġfollow": 1060,
      "ize": 1061,
      "Ġend": 1062,
      "hem": 1063,
      "Ġshow": 1064,
      "ury": 1065,
      "ergy": 1066,
      "Ġmin": 1067,
      "ah": 1068,
      "ute": 1069,
      "Ġmy": 1070,
      "ĠSe": 1071,
      "Ġlevel": 1072,
      "Ġlife": 1073,
      "Ġocc": 1074,
      "Ġins": 1075,
      ",\"": 1076,
      "Ġshe": 1077,
      "Ġgroup": 1078,
      "Ġtreat": 1079,
      "hip": 1080,
      "Ġdoes": 1081,
      "Ġnow": 1082,
      "ral": 1083,
      "any": 1084,
      "Ġcor": 1085,
      "ĠSp": 1086,
      "Ġproble": 1087,
      "Ġ10": 1088,
      "ĠThere": 1089,
      "ient": 1090,
      "ĠInd": 1091,
      "oh": 1092,
      "ody": 1093,
      "Ġpower": 1094,
      "iel": 1095,
      "ting": 1096,
      "Ġboth": 1097,
      "Ġimportant": 1098,
      "oun": 1099,
      "Ġhist": 1100,
      "Ġlead": 1101,
      "Ġbo": 1102,
      "Ġhim": 1103,
      "Ġsmall": 1104,
      "Ġcomple": 1105,
      "Ġbefore": 1106,
      "vironment": 1107,
      "Ġser": 1108,
      "Ġfind": 1109,
      ".,": 1110,
      "Ġsk": 1111,
      "inal": 1112,
      "Ġdise": 1113,
      "Ġresearch": 1114,
      "Ġschool": 1115,
      "Ġav": 1116,
      "ital": 1117,
      "xt": 1118,
      "Ġthree": 1119,
      "Ġelect": 1120,
      "ale": 1121,
      "Ġreport": 1122,
      ".âĢĿ": 1123,
      "ially": 1124,
      "ides": 1125,
      "read": 1126,
      "up": 1127,
      "Ġnumber": 1128,
      "Ġgl": 1129,
      "Ġexpl": 1130,
      "ices": 1131,
      "Ġma": 1132,
      "Ġprot": 1133,
      "Ġperson": 1134,
      "ĠAnd": 1135,
      "stit": 1136,
      "Ġoften": 1137,
      "Ġdown": 1138,
      "imate": 1139,
      "ving": 1140,
      "Ġread": 1141,
      "ĠIs": 1142,
      "ger": 1143,
      "Ġest": 1144,
      "Ġstr": 1145,
      "cl": 1146,
      "Ġdata": 1147,
      "Ġhuman": 1148,
      "Ġbel": 1149,
      "ters": 1150,
      "nce": 1151,
      "Ġdid": 1152,
      "Ġgood": 1153,
      "Ġposs": 1154,
      "Ġcontin": 1155,
      "Ġorgan": 1156,
      "Ġ8": 1157,
      "ination": 1158,
      "Ġusing": 1159,
      "ior": 1160,
      "com": 1161,
      "rent": 1162,
      "Ġless": 1163,
      "ĠDe": 1164,
      "Ġvis": 1165,
      "ected": 1166,
      "Ġcour": 1167,
      "der": 1168,
      "ared": 1169,
      "Ġlarge": 1170,
      "ulation": 1171,
      "ves": 1172,
      "hers": 1173,
      "âĢĶ": 1174,
      "air": 1175,
      "gen": 1176,
      "Ġplan": 1177,
      "Ġris": 1178,
      "bers": 1179,
      "Ġmust": 1180,
      "uss": 1181,
      "ier": 1182,
      "Ġserv": 1183,
      "Ġexample": 1184,
      "Ġcalled": 1185,
      "conom": 1186,
      "Ġwhile": 1187,
      "Ġland": 1188,
      "Ġfood": 1189,
      "self": 1190,
      "stand": 1191,
      "Ġpublic": 1192,
      "ĠAmerican": 1193,
      "Ġactiv": 1194,
      "lear": 1195,
      "...": 1196,
      "ĠUniversity": 1197,
      "ave": 1198,
      "Ġmain": 1199,
      "outh": 1200,
      "Ġcommon": 1201,
      "Ġconf": 1202,
      "osed": 1203,
      "Ġsol": 1204,
      "Ġhand": 1205,
      "ivid": 1206,
      "Ġgovernment": 1207,
      "ĠAt": 1208,
      "Ġ9": 1209,
      "ians": 1210,
      "orth": 1211,
      "Ġstudents": 1212,
      "Ġret": 1213,
      "Ġfun": 1214,
      "Ġdesign": 1215,
      "ains": 1216,
      "ock": 1217,
      "day": 1218,
      "ull": 1219,
      "ring": 1220,
      "Ġincluding": 1221,
      "Ġgrow": 1222,
      "Ġtake": 1223,
      "ton": 1224,
      "Ġredu": 1225,
      "Ġcond": 1226,
      "Ġgreat": 1227,
      "ality": 1228,
      "ner": 1229,
      "ĠThese": 1230,
      "Ġgener": 1231,
      "Ġaround": 1232,
      "ĠRes": 1233,
      "Ġop": 1234,
      "Ġlaw": 1235,
      "Ġpercent": 1236,
      "Ġconsid": 1237,
      "Ġaff": 1238,
      "Ġday": 1239,
      "the": 1240,
      "Ġwrit": 1241,
      "Ġsupport": 1242,
      "ĠWhen": 1243,
      "Ġadv": 1244,
      "Ġthough": 1245,
      "Ġdirect": 1246,
      "Ġequ": 1247,
      "iver": 1248,
      "Ġclass": 1249,
      "orn": 1250,
      "itions": 1251,
      "ission": 1252,
      "ĠComm": 1253,
      "iqu": 1254,
      "ouse": 1255,
      "Ġstand": 1256,
      "ĠTo": 1257,
      "Ġmill": 1258,
      "ted": 1259,
      "Ġchar": 1260,
      "de": 1261,
      "Ġallow": 1262,
      "akes": 1263,
      "man": 1264,
      "Ġcap": 1265,
      "Ġlook": 1266,
      "way": 1267,
      "ĠPh": 1268,
      "Ġval": 1269,
      "iety": 1270,
      "20": 1271,
      "reen": 1272,
      "oci": 1273,
      "ris": 1274,
      "Ġbody": 1275,
      "Ġenergy": 1276,
      "ources": 1277,
      "Ġdesc": 1278,
      "erest": 1279,
      "ired": 1280,
      "gin": 1281,
      "Ġ'": 1282,
      "Ġenvironment": 1283,
      "Ġstill": 1284,
      "Ġcare": 1285,
      "Ġknown": 1286,
      "ium": 1287,
      "ries": 1288,
      "Ġcontrol": 1289,
      "ross": 1290,
      "10": 1291,
      "Ġplace": 1292,
      "Ġiss": 1293,
      "ug": 1294,
      "Ġdem": 1295,
      "ĠAd": 1296,
      "Ġagainst": 1297,
      "Ġtem": 1298,
      "iod": 1299,
      "ĠOn": 1300,
      "ional": 1301,
      "Ġsl": 1302,
      "ense": 1303,
      "Ġappro": 1304,
      "Ġwithout": 1305,
      "Ġeconom": 1306,
      "lished": 1307,
      "Ġsomet": 1308,
      "Ġdisease": 1309,
      "Ġmat": 1310,
      "Ġquest": 1311,
      "aterial": 1312,
      "ĠCol": 1313,
      "acter": 1314,
      "Ġstart": 1315,
      "ax": 1316,
      "Ġanother": 1317,
      "Ġmight": 1318,
      "Ġbeh": 1319,
      "ining": 1320,
      "iving": 1321,
      "ization": 1322,
      "Ġeduc": 1323,
      "Ġfew": 1324,
      "Ġleg": 1325,
      "Ġphys": 1326,
      "Ġair": 1327,
      "Ġwomen": 1328,
      "Ġchang": 1329,
      "Ġgu": 1330,
      "jor": 1331,
      "to": 1332,
      "ording": 1333,
      "Ġdevelopment": 1334,
      "Ġsays": 1335,
      "ĠWhat": 1336,
      "rist": 1337,
      "ret": 1338,
      "oid": 1339,
      "ĠYou": 1340,
      "ĠUnited": 1341,
      "ified": 1342,
      "ple": 1343,
      "Ġ15": 1344,
      "Ġthink": 1345,
      "Ġinterest": 1346,
      "els": 1347,
      "raph": 1348,
      "ained": 1349,
      "ration": 1350,
      "arc": 1351,
      "ĠHowever": 1352,
      "âĢĵ": 1353,
      "Ġpresent": 1354,
      "ĠLe": 1355,
      "Ġchange": 1356,
      "Ġprogram": 1357,
      "Ġ[": 1358,
      "Ġcells": 1359,
      "use": 1360,
      "ina": 1361,
      "iven": 1362,
      "Ġscient": 1363,
      "Ġide": 1364,
      "ccess": 1365,
      "Ġspecies": 1366,
      "Ġoper": 1367,
      "ption": 1368,
      "ertain": 1369,
      "Ġnear": 1370,
      "ote": 1371,
      "line": 1372,
      "ĠNational": 1373,
      "ĠCan": 1374,
      "Ġwithin": 1375,
      "Ġpract": 1376,
      "Ġarea": 1377,
      "Ġwar": 1378,
      "arent": 1379,
      "ield": 1380,
      "itive": 1381,
      "Ġrest": 1382,
      "Ġblood": 1383,
      "ien": 1384,
      "hor": 1385,
      "Ġbelie": 1386,
      "here": 1387,
      "Ġpass": 1388,
      "Ġunderstand": 1389,
      "Ġant": 1390,
      "ological": 1391,
      "lish": 1392,
      "Ġmaterial": 1393,
      "Ġcaus": 1394,
      "hod": 1395,
      "Ġmil": 1396,
      "Ġmar": 1397,
      "Ġsocial": 1398,
      "ned": 1399,
      "osp": 1400,
      "az": 1401,
      "me": 1402,
      "ĠZ": 1403,
      "Ġbro": 1404,
      "Ġproject": 1405,
      "Ġoccur": 1406,
      "rain": 1407,
      "Ġpolit": 1408,
      "Ġlast": 1409,
      "ĠCl": 1410,
      "Ġinclude": 1411,
      "ently": 1412,
      "Ġsever": 1413,
      "Ġproduct": 1414,
      "med": 1415,
      "Ġbas": 1416,
      "ential": 1417,
      "Ġmeas": 1418,
      "ĠEx": 1419,
      "ived": 1420,
      "ering": 1421,
      "Ġident": 1422,
      ",âĢĿ": 1423,
      "ern": 1424,
      "Ġbuild": 1425,
      "less": 1426,
      "Ġ&": 1427,
      "Ġlight": 1428,
      "atural": 1429,
      "Ġpar": 1430,
      "erc": 1431,
      "ĠEng": 1432,
      "ason": 1433,
      "Ġobject": 1434,
      "Ġtri": 1435,
      "ĠStates": 1436,
      "ĠSh": 1437,
      "Ġearly": 1438,
      "Ġanim": 1439,
      "Ġcurrent": 1440,
      "bs": 1441,
      "Ġlow": 1442,
      "ets": 1443,
      "Ġsecond": 1444,
      "Ġmajor": 1445,
      "ats": 1446,
      "Ġpress": 1447,
      "Ġbre": 1448,
      "ank": 1449,
      "Ġeas": 1450,
      "Ġlim": 1451,
      "Ġeng": 1452,
      "Ġspe": 1453,
      "sp": 1454,
      "Ġ17": 1455,
      "Ġmove": 1456,
      "oms": 1457,
      "ividual": 1458,
      "Ġpos": 1459,
      "Ġsay": 1460,
      "ww": 1461,
      "ator": 1462,
      "atic": 1463,
      "rodu": 1464,
      "ĠMed": 1465,
      "Ġfamily": 1466,
      "ĠQ": 1467,
      "Ġopp": 1468,
      "ĠCent": 1469,
      "Ġprof": 1470,
      "Ġprovide": 1471,
      "Ġconst": 1472,
      "Ġbir": 1473,
      "eng": 1474,
      "rap": 1475,
      "Ġpoint": 1476,
      "Ġele": 1477,
      "Ġold": 1478,
      "Ġtreatment": 1479,
      "Ġprop": 1480,
      "Ġorig": 1481,
      "Ġlocal": 1482,
      "Ġdon": 1483,
      "ability": 1484,
      "Ġparticular": 1485,
      "Ġseveral": 1486,
      "Ġrisk": 1487,
      "ource": 1488,
      "ision": 1489,
      "Ġlater": 1490,
      "12": 1491,
      "Ġinvol": 1492,
      "Ġet": 1493,
      "though": 1494,
      "angu": 1495,
      "cing": 1496,
      "Ġunt": 1497,
      "Ġtop": 1498,
      "Ġpur": 1499,
      "ĠGod": 1500,
      "Ġavail": 1501,
      "ograph": 1502,
      "let": 1503,
      "ternational": 1504,
      "ify": 1505,
      "Ġdev": 1506,
      "gn": 1507,
      "esp": 1508,
      "ĠChrist": 1509,
      "att": 1510,
      "ik": 1511,
      "Ġmus": 1512,
      "Ġname": 1513,
      "ĠSo": 1514,
      "sy": 1515,
      "Ġwant": 1516,
      "ards": 1517,
      "ĠAll": 1518,
      "olution": 1519,
      "Ġfore": 1520,
      "Ġpot": 1521,
      "Ġcountry": 1522,
      "Ġaddition": 1523,
      "Ġter": 1524,
      "Ġprovid": 1525,
      "inc": 1526,
      "ĠOne": 1527,
      "Ġben": 1528,
      "ĠAf": 1529,
      "Ġhere": 1530,
      "Ġpost": 1531,
      "ames": 1532,
      "Ġareas": 1533,
      "ients": 1534,
      "Ġproper": 1535,
      "Ġbecome": 1536,
      "Ġfour": 1537,
      "ĠBe": 1538,
      "Ġhistory": 1539,
      "ention": 1540,
      "Ġindividual": 1541,
      "Ġcult": 1542,
      "resent": 1543,
      "alk": 1544,
      "par": 1545,
      "abor": 1546,
      "idence": 1547,
      "ek": 1548,
      "face": 1549,
      "Ġorder": 1550,
      "ended": 1551,
      "Ġdeterm": 1552,
      "Ġsince": 1553,
      "Ġhome": 1554,
      "Ġfin": 1555,
      "Ġmen": 1556,
      "Ġview": 1557,
      "Ġamong": 1558,
      "Ġ198": 1559,
      "Ġpri": 1560,
      "Ġmark": 1561,
      "Ġimpro": 1562,
      "Ġsit": 1563,
      "ged": 1564,
      "ories": 1565,
      "Ġopen": 1566,
      "Ġprom": 1567,
      "ittle": 1568,
      "Ġtoo": 1569,
      "Ġlo": 1570,
      "Ġtre": 1571,
      "Ġtimes": 1572,
      "view": 1573,
      "Ġsuccess": 1574,
      "ably": 1575,
      "Ġ12": 1576,
      "ids": 1577,
      "ĠPl": 1578,
      "Ġfar": 1579,
      "Ġhig": 1580,
      "ĠâĢĶ": 1581,
      "Ġmethod": 1582,
      "ĠSci": 1583,
      "lu": 1584,
      "une": 1585,
      "urop": 1586,
      "Ġve": 1587,
      "Ġpossible": 1588,
      "iter": 1589,
      "Ġperform": 1590,
      "ware": 1591,
      "Ġfre": 1592,
      "Ġnon": 1593,
      "Ġmeans": 1594,
      "Ġfollowing": 1595,
      "Ġrad": 1596,
      "Ġbetter": 1597,
      "Ġcost": 1598,
      "Ġperiod": 1599,
      "ploy": 1600,
      "Ġavailable": 1601,
      "ĠEar": 1602,
      "ples": 1603,
      "Ġcancer": 1604,
      "mb": 1605,
      "Ġbest": 1606,
      "Ġplay": 1607,
      "15": 1608,
      "Ġfree": 1609,
      "Ġable": 1610,
      "Ġanal": 1611,
      "Ġsaf": 1612,
      "ohn": 1613,
      "unt": 1614,
      "Ġcertain": 1615,
      "Ġcomput": 1616,
      "iness": 1617,
      "ĠSome": 1618,
      "Ġkeep": 1619,
      "irc": 1620,
      "Ġrece": 1621,
      "sw": 1622,
      "Ġdel": 1623,
      "Ġcentury": 1624,
      "18": 1625,
      "Ġ$": 1626,
      "Ġrun": 1627,
      "ĠJew": 1628,
      "Ġche": 1629,
      "ental": 1630,
      "ggest": 1631,
      "rid": 1632,
      "Ġobs": 1633,
      "Ġreal": 1634,
      "Ġcause": 1635,
      "Ġput": 1636,
      "urther": 1637,
      "ĠOr": 1638,
      "Ġ0": 1639,
      "Ġcase": 1640,
      "Ġstruct": 1641,
      "Ġaccess": 1642,
      "ored": 1643,
      "ĠAfric": 1644,
      "urope": 1645,
      "eg": 1646,
      "Ġbased": 1647,
      "ĠUS": 1648,
      "Ġel": 1649,
      "ways": 1650,
      "icle": 1651,
      "ilar": 1652,
      "etic": 1653,
      "oks": 1654,
      "Ġfac": 1655,
      "\".": 1656,
      "Ġmillion": 1657,
      "Ġproblems": 1658,
      "mber": 1659,
      "ends": 1660,
      "ience": 1661,
      "Ġothers": 1662,
      "tt": 1663,
      "Ġlist": 1664,
      "Ġ16": 1665,
      "Ġsuggest": 1666,
      "Ġseem": 1667,
      "Ġpain": 1668,
      "Ġgiven": 1669,
      "ler": 1670,
      "ole": 1671,
      "Ġbi": 1672,
      "Ġ.": 1673,
      "obal": 1674,
      "over": 1675,
      "ised": 1676,
      "por": 1677,
      "Ġappear": 1678,
      "ling": 1679,
      "ĠDr": 1680,
      "ills": 1681,
      "Ġmean": 1682,
      "Ġsignific": 1683,
      "Ġauthor": 1684,
      "ither": 1685,
      "alf": 1686,
      "ument": 1687,
      "pr": 1688,
      "Ġprevent": 1689,
      "Ġuntil": 1690,
      "Ġshort": 1691,
      "Ġrecord": 1692,
      "ured": 1693,
      "work": 1694,
      "Ġlangu": 1695,
      "ĠSy": 1696,
      "ĠWar": 1697,
      "Ġmonth": 1698,
      "Ġlittle": 1699,
      "ĠBrit": 1700,
      "orts": 1701,
      "Ġer": 1702,
      "aken": 1703,
      "200": 1704,
      "of": 1705,
      "Ġspace": 1706,
      "atory": 1707,
      "Ġmot": 1708,
      "Ġhead": 1709,
      "aim": 1710,
      "ĠThat": 1711,
      "isc": 1712,
      "Ġamount": 1713,
      "11": 1714,
      "ately": 1715,
      "ĠGen": 1716,
      "ĠTe": 1717,
      "Ġnatural": 1718,
      "ĠWor": 1719,
      "Ġturn": 1720,
      "Ġdeath": 1721,
      "Ġindust": 1722,
      "ope": 1723,
      "Ġlevels": 1724,
      "Ġage": 1725,
      "Ġplant": 1726,
      "ash": 1727,
      "ĠBy": 1728,
      "aps": 1729,
      "Ġ197": 1730,
      "Ġdescrib": 1731,
      "Ġclear": 1732,
      "Ġcomb": 1733,
      "Ġresearc": 1734,
      "Ġrele": 1735,
      "Ġsing": 1736,
      "idd": 1737,
      "Ġleast": 1738,
      "Ġpopulation": 1739,
      "Ġproblem": 1740,
      "ĠJohn": 1741,
      "ued": 1742,
      "ication": 1743,
      "ĠEurope": 1744,
      "aper": 1745,
      "Ġlet": 1746,
      "dition": 1747,
      "ances": 1748,
      "Ġthings": 1749,
      "Ġleft": 1750,
      "Ġassoci": 1751,
      "Ġfunction": 1752,
      "Ġhapp": 1753,
      "Ġexam": 1754,
      "rug": 1755,
      "ĠWith": 1756,
      "ung": 1757,
      "ĠSoc": 1758,
      "Ġcrit": 1759,
      "Ġspecial": 1760,
      "Ġpolitical": 1761,
      "pect": 1762,
      "Ġbook": 1763,
      "ogn": 1764,
      "ormal": 1765,
      "be": 1766,
      "not": 1767,
      "enn": 1768,
      "Ġtemper": 1769,
      "erence": 1770,
      "Ġsw": 1771,
      "Ġcome": 1772,
      "Ġapplic": 1773,
      "Ġestab": 1774,
      "Ġbenef": 1775,
      "ng": 1776,
      "Ġmembers": 1777,
      "Ġcases": 1778,
      "Ġabove": 1779,
      "nal": 1780,
      "ĠGo": 1781,
      "ĠAb": 1782,
      "Ġhard": 1783,
      "Ġrepresent": 1784,
      "Ġcal": 1785,
      "Ġexist": 1786,
      "Ġ--": 1787,
      "rate": 1788,
      "Ġcountries": 1789,
      "ember": 1790,
      "Ġsystems": 1791,
      "Ġchem": 1792,
      "Ġfil": 1793,
      "Ġsite": 1794,
      "Ġbus": 1795,
      "ead": 1796,
      "ĠSc": 1797,
      "Ġinvest": 1798,
      "ocus": 1799,
      "ands": 1800,
      "ledge": 1801,
      "ences": 1802,
      "Ġdr": 1803,
      "ley": 1804,
      "vious": 1805,
      "min": 1806,
      "Ġhowever": 1807,
      "Ġoffic": 1808,
      "ray": 1809,
      "ape": 1810,
      "Ġcourse": 1811,
      "iam": 1812,
      "itor": 1813,
      "Ġsurface": 1814,
      "Ġbecame": 1815,
      "ators": 1816,
      "oph": 1817,
      "30": 1818,
      "Ġtru": 1819,
      "Ġgre": 1820,
      "Ġlikely": 1821,
      "Ġtechnology": 1822,
      "Ġmult": 1823,
      "elf": 1824,
      "Ġ14": 1825,
      "Ġcommunity": 1826,
      "Ġtype": 1827,
      "Ġill": 1828,
      "aster": 1829,
      "Ġside": 1830,
      "Ġ30": 1831,
      "ots": 1832,
      "ĠNorth": 1833,
      "ird": 1834,
      "Ġconn": 1835,
      "oman": 1836,
      "ones": 1837,
      "Ġterm": 1838,
      "Ġusually": 1839,
      "Ġsomething": 1840,
      "Ġgeneral": 1841,
      "Ġdri": 1842,
      "ortun": 1843,
      "Ġlearning": 1844,
      "eb": 1845,
      "ĠResear": 1846,
      "Ġalong": 1847,
      "icult": 1848,
      "ode": 1849,
      "ison": 1850,
      "ude": 1851,
      "ĠRep": 1852,
      "Ġ196": 1853,
      "Ġpast": 1854,
      "lement": 1855,
      "uture": 1856,
      "ps": 1857,
      "Ġdra": 1858,
      "Ġnecess": 1859,
      "NA": 1860,
      "ox": 1861,
      "duct": 1862,
      "anc": 1863,
      "amin": 1864,
      "Ġrights": 1865,
      "Ġresults": 1866,
      "Ġconditions": 1867,
      "Ġchanges": 1868,
      "50": 1869,
      "Ġwords": 1870,
      "Ġparent": 1871,
      "rim": 1872,
      "ĠâĢĺ": 1873,
      "Ġnever": 1874,
      "Ġeducation": 1875,
      "Ġenc": 1876,
      "sc": 1877,
      "ruction": 1878,
      "Ġtoget": 1879,
      "Ġtogether": 1880,
      "ivil": 1881,
      "ffic": 1882,
      "Ġsimilar": 1883,
      "val": 1884,
      "Ġcirc": 1885,
      "Ġdays": 1886,
      "agement": 1887,
      "Ġsignificant": 1888,
      "ĠWorld": 1889,
      "oint": 1890,
      "Ġnet": 1891,
      "ending": 1892,
      "Ġstudies": 1893,
      "Ġvol": 1894,
      "ĠGerm": 1895,
      "Ġdam": 1896,
      "Ġheart": 1897,
      "ecially": 1898,
      "ĠYork": 1899,
      "ipp": 1900,
      "Ġdue": 1901,
      "most": 1902,
      "aining": 1903,
      "mp": 1904,
      "Ġbegin": 1905,
      "ĠAct": 1906,
      "Ġspecific": 1907,
      "Ġpatients": 1908,
      "ĠMay": 1909,
      "Ġnext": 1910,
      "ges": 1911,
      "Ġ11": 1912,
      "selves": 1913,
      "Ġhy": 1914,
      "ĠAfter": 1915,
      "ott": 1916,
      "ane": 1917,
      "ribut": 1918,
      "ĠX": 1919,
      "Ġnational": 1920,
      "Ġimpact": 1921,
      "Ġeffects": 1922,
      "af": 1923,
      "ively": 1924,
      "Ġplac": 1925,
      "oney": 1926,
      "Ġhaving": 1927,
      "Ġdoct": 1928,
      "ĠAss": 1929,
      "for": 1930,
      "Ġey": 1931,
      "ĠMar": 1932,
      "ours": 1933,
      "Ġcolle": 1934,
      "Ġprofess": 1935,
      "rel": 1936,
      "ont": 1937,
      "ilities": 1938,
      "omm": 1939,
      "by": 1940,
      "ee": 1941,
      "Ġmaking": 1942,
      "Ġenough": 1943,
      "especially": 1944,
      "Ġdiscuss": 1945,
      "Ġcomplete": 1946,
      "Ġrespons": 1947,
      "Ġflow": 1948,
      "ression": 1949,
      "Ġstrong": 1950,
      "Ġcity": 1951,
      "ĠHis": 1952,
      "oot": 1953,
      "Ġworks": 1954,
      "atch": 1955,
      "ublic": 1956,
      "AS": 1957,
      "Ġhigher": 1958,
      "--": 1959,
      "Ġcreat": 1960,
      "Ġfund": 1961,
      "Ġpolic": 1962,
      "Ġdoc": 1963,
      "cle": 1964,
      "rams": 1965,
      "Ġblack": 1966,
      "Ġresearchers": 1967,
      "Ġz": 1968,
      "Ġtoday": 1969,
      "Ġask": 1970,
      "Ġlower": 1971,
      "ĠHealth": 1972,
      "Ġdeveloped": 1973,
      "right": 1974,
      "ĠDep": 1975,
      "Ġsex": 1976,
      "Ġincrease": 1977,
      "app": 1978,
      "ĠEarth": 1979,
      "put": 1980,
      "Ġdifficult": 1981,
      ".)": 1982,
      "Ġprim": 1983,
      "Ġcho": 1984,
      "Ġ2012": 1985,
      "Ġcharacter": 1986,
      "Ġpressure": 1987,
      "Ġfield": 1988,
      "ĠBl": 1989,
      "ilt": 1990,
      "Ġfocus": 1991,
      "Ġmov": 1992,
      "asing": 1993,
      "Ġgr": 1994,
      "Ġlearn": 1995,
      "ery": 1996,
      "Ġprob": 1997,
      "ĠGe": 1998,
      "Ġlanguage": 1999,
      "Ġla": 2000,
      "ĠPe": 2001,
      "Ġvir": 2002,
      "Ġfive": 2003,
      "Ġfurther": 2004,
      "Ġitself": 2005,
      "Ġkind": 2006,
      "ĠCal": 2007,
      "Ġmedical": 2008,
      "Ġaway": 2009,
      "):": 2010,
      "ĠCar": 2011,
      "Ġlay": 2012,
      "Ġground": 2013,
      "Ġneeds": 2014,
      "Ġbehav": 2015,
      "Ġevidence": 2016,
      "iting": 2017,
      "ream": 2018,
      "Ġvarious": 2019,
      "ency": 2020,
      "Ġfish": 2021,
      "side": 2022,
      "Ġrelations": 2023,
      "Ġrequire": 2024,
      "Ġline": 2025,
      "ĠSouth": 2026,
      "ready": 2027,
      "Ġfuture": 2028,
      "Ġword": 2029,
      "Ġteam": 2030,
      "ires": 2031,
      "Ġann": 2032,
      "Ġsubject": 2033,
      "ĠAmerica": 2034,
      "Ġespecially": 2035,
      "Ġoil": 2036,
      "Ġseen": 2037,
      "Ġinflu": 2038,
      "Ġgroups": 2039,
      "Ġsingle": 2040,
      "wh": 2041,
      "Ġprotect": 2042,
      "Ġbrain": 2043,
      "Ġloss": 2044,
      "ournal": 2045,
      "iation": 2046,
      "ederal": 2047,
      "istic": 2048,
      "Ġwhether": 2049,
      "rated": 2050,
      "omes": 2051,
      "ĠAust": 2052,
      "artment": 2053,
      "Ġscience": 2054,
      "Ġdrug": 2055,
      "ule": 2056,
      "Ġreturn": 2057,
      "ibility": 2058,
      "Ġneg": 2059,
      "13": 2060,
      "ĠState": 2061,
      "ann": 2062,
      "Ġphot": 2063,
      "Ġpublished": 2064,
      "Ġsent": 2065,
      "Ġrepl": 2066,
      "Ġemploy": 2067,
      "ront": 2068,
      "Ġknowledge": 2069,
      "Ġrather": 2070,
      "ervation": 2071,
      "ales": 2072,
      "epend": 2073,
      "sych": 2074,
      "Ġfail": 2075,
      "Ġfeel": 2076,
      "Ġess": 2077,
      "ique": 2078,
      "Ġgive": 2079,
      "Ġcreate": 2080,
      "Ġ13": 2081,
      "Ġopt": 2082,
      "overed": 2083,
      "Ġconsum": 2084,
      "Ġalways": 2085,
      "rict": 2086,
      "Ġparticip": 2087,
      "stitute": 2088,
      "Ġfull": 2089,
      "ym": 2090,
      "Ġri": 2091,
      "osis": 2092,
      "Ġresources": 2093,
      "Ġeconomic": 2094,
      "Ġindic": 2095,
      "Ġtaken": 2096,
      "Ġprote": 2097,
      "Ġcollect": 2098,
      "Ġquestion": 2099,
      "Ġimm": 2100,
      "Ġplants": 2101,
      "ae": 2102,
      "Ġstep": 2103,
      "ĠII": 2104,
      "Ã©": 2105,
      "Ġdia": 2106,
      "ĠHist": 2107,
      "Ġworking": 2108,
      "ĠPres": 2109,
      "Ġalready": 2110,
      "Ġacross": 2111,
      "Ġtry": 2112,
      "ysis": 2113,
      "ĠWhile": 2114,
      "apt": 2115,
      "thing": 2116,
      "Ġyoung": 2117,
      "ules": 2118,
      "Ġstat": 2119,
      "Ġsum": 2120,
      "Ġwhy": 2121,
      "itted": 2122,
      "Ġwr": 2123,
      "Ġmag": 2124,
      "Ġdest": 2125,
      "amm": 2126,
      "Ġdi": 2127,
      "Ġclose": 2128,
      "Ġgrowth": 2129,
      "Ġhalf": 2130,
      "ĠFl": 2131,
      "Ġevent": 2132,
      "mpt": 2133,
      "urch": 2134,
      "ĠStud": 2135,
      "ĠCont": 2136,
      "Ġconsider": 2137,
      "rie": 2138,
      "ER": 2139,
      "Ġgoing": 2140,
      "Ġreason": 2141,
      "Ġconcer": 2142,
      "Ġstates": 2143,
      "aves": 2144,
      "Ġhistor": 2145,
      "ĠResearch": 2146,
      "Ġfall": 2147,
      "Ġliving": 2148,
      "Ġsun": 2149,
      "Ġlive": 2150,
      "Ġrange": 2151,
      "uel": 2152,
      "oll": 2153,
      "Ġred": 2154,
      "Ġbelow": 2155,
      "Ġupon": 2156,
      "fer": 2157,
      "alt": 2158,
      "Ġmass": 2159,
      "Ġeither": 2160,
      "ĠAm": 2161,
      "Ġaccording": 2162,
      "Ġaddress": 2163,
      "hib": 2164,
      "Ġthemselves": 2165,
      "Ġregion": 2166,
      "icine": 2167,
      "Ġactivity": 2168,
      "//": 2169,
      "ĠNo": 2170,
      "ivity": 2171,
      "Ġproduction": 2172,
      "Ġglobal": 2173,
      "nam": 2174,
      "Ġwind": 2175,
      "roll": 2176,
      "Ġphysical": 2177,
      "ttp": 2178,
      "Ġsens": 2179,
      "Ġabs": 2180,
      "Ġarg": 2181,
      "itary": 2182,
      "17": 2183,
      "ications": 2184,
      "Ġwhite": 2185,
      "Ġthought": 2186,
      "Ġcomputer": 2187,
      "Ġways": 2188,
      "Ġpay": 2189,
      "Ġaccount": 2190,
      "org": 2191,
      "Ġteac": 2192,
      "gest": 2193,
      "onst": 2194,
      "sh": 2195,
      "ened": 2196,
      "Ġclaim": 2197,
      "ober": 2198,
      "Ġsepar": 2199,
      "son": 2200,
      "Ġanimals": 2201,
      "iol": 2202,
      "Ġsource": 2203,
      "Ġinit": 2204,
      "Ġmeet": 2205,
      "Ġrole": 2206,
      "Ġtoward": 2207,
      "Ġ2010": 2208,
      "ints": 2209,
      "Ġcame": 2210,
      "Ġdone": 2211,
      "ĠSec": 2212,
      "Ġcreated": 2213,
      "ches": 2214,
      "Ġincreased": 2215,
      "Ġclimate": 2216,
      "Ġfamil": 2217,
      "ĠEnglish": 2218,
      "iment": 2219,
      "Ġexperience": 2220,
      "Ġkey": 2221,
      "Ġreact": 2222,
      "Ġsix": 2223,
      "Ġcop": 2224,
      "Ġwide": 2225,
      "Ġhold": 2226,
      "ulations": 2227,
      "Ġdeg": 2228,
      "ĠAcc": 2229,
      "eed": 2230,
      "Ġreally": 2231,
      "Ġonce": 2232,
      "ĠMore": 2233,
      "Ġchemical": 2234,
      "://": 2235,
      "Ġhouse": 2236,
      "urity": 2237,
      "rown": 2238,
      "Ġenvironmental": 2239,
      "olic": 2240,
      "Ġtext": 2241,
      "Ġbegan": 2242,
      "Ġrecent": 2243,
      "my": 2244,
      "Ġmodel": 2245,
      "verage": 2246,
      "14": 2247,
      "Ġmoney": 2248,
      "ried": 2249,
      "Ġskin": 2250,
      "Ġtook": 2251,
      "Ġrecogn": 2252,
      "ification": 2253,
      "Ġrequired": 2254,
      "Ġsize": 2255,
      "ster": 2256,
      "Ġrelative": 2257,
      "Ġscientists": 2258,
      "Ġansw": 2259,
      "Ġconsidered": 2260,
      "Ġaffect": 2261,
      "iple": 2262,
      "Ġparts": 2263,
      "Ġneeded": 2264,
      "reme": 2265,
      "apan": 2266,
      "Ġmodern": 2267,
      "mptoms": 2268,
      "cil": 2269,
      "ĠMany": 2270,
      "ateg": 2271,
      "Ġcr": 2272,
      "ites": 2273,
      "Ġtool": 2274,
      "Ġ25": 2275,
      "Ġpred": 2276,
      "icro": 2277,
      "ume": 2278,
      "Ġfrequ": 2279,
      "Ġcannot": 2280,
      "fact": 2281,
      "port": 2282,
      "Ġtot": 2283,
      "ĠDav": 2284,
      "stitution": 2285,
      "bon": 2286,
      "Ġactivities": 2287,
      "aged": 2288,
      "ights": 2289,
      "Ġprovides": 2290,
      "ĠShe": 2291,
      "ĠRet": 2292,
      "Ġ50": 2293,
      "Ġ2011": 2294,
      "esc": 2295,
      "like": 2296,
      "reg": 2297,
      "atures": 2298,
      "vere": 2299,
      "Ġrelig": 2300,
      "Ġentire": 2301,
      "Ġpriv": 2302,
      "Ġvers": 2303,
      "eds": 2304,
      "Ġmind": 2305,
      "Ġbusiness": 2306,
      "aring": 2307,
      "chie": 2308,
      "illed": 2309,
      "estern": 2310,
      "ius": 2311,
      "Ġpage": 2312,
      "ĠCons": 2313,
      "Ġquestions": 2314,
      "Th": 2315,
      "go": 2316,
      "Ġmakes": 2317,
      "Ġconcept": 2318,
      "Ġproducts": 2319,
      "ibr": 2320,
      "ĠMin": 2321,
      "Ġ100": 2322,
      "order": 2323,
      "Ġissues": 2324,
      "Ġobserv": 2325,
      "Ġdeb": 2326,
      "medi": 2327,
      "rect": 2328,
      "aut": 2329,
      "ĠCor": 2330,
      "ĠJan": 2331,
      "ĠCenter": 2332,
      "Ġcle": 2333,
      "Ġdom": 2334,
      "Ġwhole": 2335,
      "Ġlink": 2336,
      "Ġcomplex": 2337,
      "ĠBo": 2338,
      "augh": 2339,
      "Ġpotential": 2340,
      "lo": 2341,
      "Ġcamp": 2342,
      "chan": 2343,
      "oura": 2344,
      "Ġarticle": 2345,
      "ĠCo": 2346,
      "ĠJu": 2347,
      "ĠJapan": 2348,
      "Ġrelated": 2349,
      "abit": 2350,
      "Ġ2008": 2351,
      "Ġactually": 2352,
      "Ġengine": 2353,
      "Ġnature": 2354,
      "Ġimprove": 2355,
      "Ġver": 2356,
      "Ġdiv": 2357,
      "het": 2358,
      "urs": 2359,
      "rought": 2360,
      "Ġtypes": 2361,
      "iddle": 2362,
      "Ġport": 2363,
      "rad": 2364,
      "atives": 2365,
      "Ġbig": 2366,
      "aching": 2367,
      "Ġprograms": 2368,
      "Ġbill": 2369,
      "Ġalmost": 2370,
      "Ġsuper": 2371,
      "Ġinteract": 2372,
      "Ġgas": 2373,
      "ĠMost": 2374,
      "Ġchall": 2375,
      "Ġsubst": 2376,
      "Ġstandard": 2377,
      "ĠCanad": 2378,
      "Ġprovided": 2379,
      "now": 2380,
      "Ġmor": 2381,
      "ĠDo": 2382,
      "Ġweek": 2383,
      "ĠAlthough": 2384,
      "uation": 2385,
      "Ġdetail": 2386,
      "Ġmaterials": 2387,
      "pid": 2388,
      "Ġpaper": 2389,
      "utes": 2390,
      "Ġtemperature": 2391,
      "Ġtell": 2392,
      "oses": 2393,
      "Ġflu": 2394,
      "Ġself": 2395,
      "ĠBritish": 2396,
      "ched": 2397,
      "Ġconduct": 2398,
      "ables": 2399,
      "Ġvalue": 2400,
      "ĠMarch": 2401,
      "ety": 2402,
      "Ġintrodu": 2403,
      "Ġreduce": 2404,
      "Ġcut": 2405,
      "Ġtraining": 2406,
      "ney": 2407,
      "16": 2408,
      "empt": 2409,
      "Ġvit": 2410,
      "Ġnormal": 2411,
      "ĠSu": 2412,
      "ronic": 2413,
      "Ġshows": 2414,
      "Ġservice": 2415,
      "Ġidea": 2416,
      "ĠGu": 2417,
      "Ġdig": 2418,
      "ĠÂ": 2419,
      "Ġur": 2420,
      "raft": 2421,
      "amb": 2422,
      "acy": 2423,
      "Ġsoft": 2424,
      "Ġyet": 2425,
      "ma": 2426,
      "ister": 2427,
      "ensive": 2428,
      "lex": 2429,
      "sequ": 2430,
      "ID": 2431,
      "Ġcy": 2432,
      "Ġwild": 2433,
      "ai": 2434,
      "acks": 2435,
      "Ġproduce": 2436,
      "Ġaction": 2437,
      "Ġrate": 2438,
      "Ġsurv": 2439,
      "Ġmeasure": 2440,
      "eter": 2441,
      "Ġ2007": 2442,
      "Ġbuilt": 2443,
      "Ġtherap": 2444,
      "ĠTr": 2445,
      "Ġliter": 2446,
      "lying": 2447,
      "Ġge": 2448,
      "Ġadult": 2449,
      "Ġbuilding": 2450,
      "Ġgreater": 2451,
      "21": 2452,
      "erve": 2453,
      "'re": 2454,
      "ES": 2455,
      "Ġstory": 2456,
      "rial": 2457,
      "ĠOther": 2458,
      "Ġcit": 2459,
      "Ġsymptoms": 2460,
      "Ġtown": 2461,
      "vey": 2462,
      "ounds": 2463,
      "Ġaccept": 2464,
      "Ġmaint": 2465,
      "minist": 2466,
      "ply": 2467,
      "Ġthreat": 2468,
      "Ġmanagement": 2469,
      "Ġrelationship": 2470,
      "Ġstudent": 2471,
      "ĠApp": 2472,
      "ĠPer": 2473,
      "ĠInstitute": 2474,
      "Ġtradition": 2475,
      "Ġrev": 2476,
      "Ġ2009": 2477,
      "ĠScience": 2478,
      "lt": 2479,
      "uary": 2480,
      "Ġdesigned": 2481,
      "Ġnecessary": 2482,
      "ene": 2483,
      "ĠInternational": 2484,
      "Ġregard": 2485,
      "Ġopportun": 2486,
      "ĠPresident": 2487,
      "Ġsense": 2488,
      "adem": 2489,
      "Ġcontact": 2490,
      "uck": 2491,
      "Ġmonths": 2492,
      "Ġce": 2493,
      "Ġled": 2494,
      "Ġtrue": 2495,
      "ump": 2496,
      "ival": 2497,
      "igure": 2498,
      "Ġbirth": 2499,
      "lim": 2500,
      "Ġforce": 2501,
      "ĠInf": 2502,
      "Ġ194": 2503,
      "Ġrecomm": 2504,
      "rench": 2505,
      "ze": 2506,
      "inks": 2507,
      "mon": 2508,
      "erous": 2509,
      "Ġemer": 2510,
      "Ġens": 2511,
      "Ġarch": 2512,
      "Ġthroughout": 2513,
      "iction": 2514,
      "Ġreported": 2515,
      "Ġachie": 2516,
      "Ġwin": 2517,
      "Ġ/": 2518,
      "atter": 2519,
      "Ġcoll": 2520,
      "Ġcoun": 2521,
      "aters": 2522,
      "Ġheav": 2523,
      "Ġmechan": 2524,
      "Ġissue": 2525,
      "umb": 2526,
      "Ġcondition": 2527,
      "Ġstri": 2528,
      "Ġnuc": 2529,
      "ĠPart": 2530,
      "ĠChina": 2531,
      "Ġassociated": 2532,
      "ging": 2533,
      "ask": 2534,
      "Ġsure": 2535,
      "ips": 2536,
      "inary": 2537,
      "ush": 2538,
      "izing": 2539,
      "Ġprevious": 2540,
      "Ġpattern": 2541,
      "Ġlonger": 2542,
      "Ġpractice": 2543,
      "aff": 2544,
      "gram": 2545,
      "ror": 2546,
      "ĠMan": 2547,
      "ections": 2548,
      "Ġunderstanding": 2549,
      "rand": 2550,
      "acc": 2551,
      "ĠDepartment": 2552,
      "Ġsqu": 2553,
      "abet": 2554,
      "Ġwritten": 2555,
      "istance": 2556,
      "Ġquick": 2557,
      "Ġquality": 2558,
      "ĠAfrican": 2559,
      "leep": 2560,
      "ashing": 2561,
      "Ġlot": 2562,
      "ternal": 2563,
      "ext": 2564,
      "Ġtotal": 2565,
      "Ġinternational": 2566,
      "Ġdiet": 2567,
      "Ġlog": 2568,
      "ows": 2569,
      "Ġsett": 2570,
      "ĠQu": 2571,
      "ĠAug": 2572,
      "ĠChe": 2573,
      "Ġweight": 2574,
      "ĠPr": 2575,
      "ropri": 2576,
      "Ġmedia": 2577,
      "Ġdiagn": 2578,
      "Ġinj": 2579,
      "Ġlab": 2580,
      "ĠPre": 2581,
      "ript": 2582,
      "Ġindepend": 2583,
      "ĠJewish": 2584,
      "ĠAustral": 2585,
      "ming": 2586,
      "Ġgreen": 2587,
      "usion": 2588,
      "ĠSee": 2589,
      "imately": 2590,
      "Ġparents": 2591,
      "Ġdocument": 2592,
      "Ġterms": 2593,
      "Ġability": 2594,
      "Ġeffic": 2595,
      "based": 2596,
      "Ġsources": 2597,
      "Ġhttp": 2598,
      "Ġstop": 2599,
      "duc": 2600,
      "Ġoriginal": 2601,
      "Ġstructure": 2602,
      "ĠMus": 2603,
      "Ġcaused": 2604,
      "Ġbur": 2605,
      "ĠHar": 2606,
      "Ġmarket": 2607,
      "hy": 2608,
      "Ġforms": 2609,
      "igation": 2610,
      "ĠMe": 2611,
      "ĠAccording": 2612,
      "Ġut": 2613,
      "icles": 2614,
      "Ġever": 2615,
      "amed": 2616,
      "ĠWest": 2617,
      "Ġtravel": 2618,
      "Ġrespect": 2619,
      "Ġorigin": 2620,
      "Ġnetwork": 2621,
      "Ġprobably": 2622,
      "pril": 2623,
      "Ġsuff": 2624,
      "Ġproduced": 2625,
      "ĠSchool": 2626,
      "Ġcontent": 2627,
      "ached": 2628,
      "Ġsimple": 2629,
      "Ġavoid": 2630,
      "Ġapproach": 2631,
      "Ġfile": 2632,
      "Ġcontain": 2633,
      "oon": 2634,
      "ĠRec": 2635,
      "ief": 2636,
      "Ġcolor": 2637,
      "Ġviol": 2638,
      "AT": 2639,
      "Ġfri": 2640,
      "ĠPress": 2641,
      "fully": 2642,
      "Ġearth": 2643,
      "Ġinvolved": 2644,
      "Ġtaking": 2645,
      "ising": 2646,
      "aries": 2647,
      "Ġoutside": 2648,
      "utions": 2649,
      "dom": 2650,
      "Ġbar": 2651,
      "Ġjud": 2652,
      "ira": 2653,
      "ĠTra": 2654,
      "Ġconc": 2655,
      "haps": 2656,
      "Ġperm": 2657,
      "cient": 2658,
      "Ġdeveloping": 2659,
      "ĠCalif": 2660,
      "ino": 2661,
      "Ġpath": 2662,
      "Ġcomes": 2663,
      "vention": 2664,
      "Ġexerc": 2665,
      "Ġposition": 2666,
      "Ġanalysis": 2667,
      "arily": 2668,
      "Ġhours": 2669,
      "ĠAnt": 2670,
      "eration": 2671,
      "Ġlabor": 2672,
      "ĠFrom": 2673,
      "rieved": 2674,
      "osure": 2675,
      "Ġrefer": 2676,
      "Ġx": 2677,
      "Ġlate": 2678,
      "ĠEd": 2679,
      "Ġofficial": 2680,
      "IS": 2681,
      "ĠWill": 2682,
      "Ġmovement": 2683,
      "Ġindustry": 2684,
      "bo": 2685,
      "ĠInt": 2686,
      "ĠFran": 2687,
      "Ġir": 2688,
      "ĠCount": 2689,
      "ĠChild": 2690,
      "Ġvisit": 2691,
      "olec": 2692,
      "Ġcivil": 2693,
      "Ġshown": 2694,
      "Ġjo": 2695,
      "Ġfat": 2696,
      "Ġconcent": 2697,
      "Ġsometimes": 2698,
      "asc": 2699,
      "osition": 2700,
      "Ġeffective": 2701,
      "attle": 2702,
      ");": 2703,
      "nces": 2704,
      "ĠIm": 2705,
      "ĠNe": 2706,
      "Ġfactors": 2707,
      "Ġestablished": 2708,
      "hood": 2709,
      "Ġevents": 2710,
      "25": 2711,
      "Ġfront": 2712,
      "Ġcompl": 2713,
      "Ġheld": 2714,
      "ĠKing": 2715,
      "Ġnumbers": 2716,
      "Ġmatter": 2717,
      "ĠJuly": 2718,
      "Ġdeep": 2719,
      "Ġinteg": 2720,
      "Ġuses": 2721,
      "ĠDuring": 2722,
      "Ġimage": 2723,
      "Ġseries": 2724,
      "uk": 2725,
      "Ġsimply": 2726,
      "ners": 2727,
      "Ġtheory": 2728,
      "itude": 2729,
      "eding": 2730,
      "Ġ24": 2731,
      "Ġbasic": 2732,
      "Ġdoctor": 2733,
      "Ġ40": 2734,
      "ese": 2735,
      "ĠAg": 2736,
      "lands": 2737,
      "aches": 2738,
      "ening": 2739,
      "Ġthous": 2740,
      "Ġparticularly": 2741,
      "Ġpurp": 2742,
      "80": 2743,
      "che": 2744,
      "Ġheat": 2745,
      "Ġjob": 2746,
      "ricult": 2747,
      "Ġincreasing": 2748,
      "In": 2749,
      "ĠFrench": 2750,
      "Ġattempt": 2751,
      "Ġserious": 2752,
      "Ġdemonst": 2753,
      "ressed": 2754,
      "ĠRetrieved": 2755,
      "Ġfederal": 2756,
      "Ġnation": 2757,
      "cies": 2758,
      "ades": 2759,
      "ops": 2760,
      "aging": 2761,
      "Ġpopular": 2762,
      "Ġfarm": 2763,
      "ana": 2764,
      "Ġwhose": 2765,
      "Ġservices": 2766,
      "Ġscientific": 2767,
      "Ġpoll": 2768,
      "Ġinterp": 2769,
      "Ġgenerally": 2770,
      "ĠRuss": 2771,
      "Ġcapital": 2772,
      "lies": 2773,
      "ores": 2774,
      "Ġfa": 2775,
      "Ġspread": 2776,
      "Ġschools": 2777,
      "Ġcourt": 2778,
      "overy": 2779,
      "ĠApril": 2780,
      "Ġonline": 2781,
      "ĠVol": 2782,
      "Ġincludes": 2783,
      "Ġcapt": 2784,
      "www": 2785,
      "Ġmeaning": 2786,
      "ctions": 2787,
      "Ġcolon": 2788,
      "ĠComp": 2789,
      "ornia": 2790,
      "Ġface": 2791,
      "Ġelectric": 2792,
      "Ġbehavior": 2793,
      "Ġaverage": 2794,
      "Ġslow": 2795,
      "lease": 2796,
      "Ġremov": 2797,
      "ĠSept": 2798,
      "ĠGovern": 2799,
      "onse": 2800,
      "ĠAc": 2801,
      "ĠEduc": 2802,
      "ĠJune": 2803,
      "undred": 2804,
      "AR": 2805,
      "cember": 2806,
      "uman": 2807,
      "Ġpict": 2808,
      "coh": 2809,
      "estic": 2810,
      "Ġsust": 2811,
      "Ġpolicy": 2812,
      "Ġbring": 2813,
      "199": 2814,
      "ille": 2815,
      "ribution": 2816,
      "ĠIndian": 2817,
      "Ġmess": 2818,
      "ĠCong": 2819,
      "Ġcarbon": 2820,
      "ashington": 2821,
      "IN": 2822,
      "bre": 2823,
      "ĠPar": 2824,
      "Ġvari": 2825,
      "Ġbreak": 2826,
      "Ġox": 2827,
      "Ġago": 2828,
      "AN": 2829,
      "ON": 2830,
      "Ġ,": 2831,
      "Ġsat": 2832,
      "ĠRiver": 2833,
      "Ġsea": 2834,
      "aving": 2835,
      "Ġcentral": 2836,
      "Ġmilitary": 2837,
      "ĠChristian": 2838,
      "Ġthing": 2839,
      "ovember": 2840,
      "ĠCalifornia": 2841,
      "Ġap": 2842,
      "Ġthus": 2843,
      "na": 2844,
      "rast": 2845,
      "Ġdou": 2846,
      "unch": 2847,
      "Ġpoor": 2848,
      "cell": 2849,
      "ecause": 2850,
      "reng": 2851,
      "ĠDavid": 2852,
      "Ġfire": 2853,
      "orders": 2854,
      "eal": 2855,
      "Ġassess": 2856,
      "pro": 2857,
      "itation": 2858,
      "Ġpsych": 2859,
      "ĠIS": 2860,
      "uls": 2861,
      "Ġsearch": 2862,
      "Ġnearly": 2863,
      "IT": 2864,
      "Ġvide": 2865,
      "bor": 2866,
      "Ġaltern": 2867,
      "ĠNow": 2868,
      "where": 2869,
      "Ġsoil": 2870,
      "Ġpersonal": 2871,
      "Ġbehind": 2872,
      "ĠJanuary": 2873,
      "Ġworkers": 2874,
      "issions": 2875,
      "Ġcontinue": 2876,
      "useum": 2877,
      "Ġfem": 2878,
      "istics": 2879,
      "Ġthird": 2880,
      "ender": 2881,
      "Ġconsist": 2882,
      "Ġtests": 2883,
      "Ġbelieve": 2884,
      "Ġmount": 2885,
      "gency": 2886,
      "Ġwriting": 2887,
      "ĠAugust": 2888,
      "Ġwall": 2889,
      "ĠWashington": 2890,
      "Ġcommunities": 2891,
      "Ġcauses": 2892,
      "Ġetc": 2893,
      "ĠHistory": 2894,
      "life": 2895,
      "xic": 2896,
      "Ġlost": 2897,
      "ength": 2898,
      "light": 2899,
      "mosp": 2900,
      "Ġsus": 2901,
      "Ġec": 2902,
      "Ġalthough": 2903,
      "Ġtherefore": 2904,
      "Ġemb": 2905,
      "Ġmethods": 2906,
      "Ġast": 2907,
      "Ġincluded": 2908,
      "Ġvariety": 2909,
      "Ġestim": 2910,
      "imum": 2911,
      "ĠPol": 2912,
      "Ġimmedi": 2913,
      "ns": 2914,
      "ĠHer": 2915,
      "Ġadded": 2916,
      "Ġleaders": 2917,
      "ĠTw": 2918,
      "Ġanimal": 2919,
      "Ġmusic": 2920,
      "ancy": 2921,
      "inical": 2922,
      "Ġfram": 2923,
      "Ġnorth": 2924,
      "ĠOct": 2925,
      "Ġindividuals": 2926,
      "Ġtax": 2927,
      "ilos": 2928,
      "We": 2929,
      "Ġcompan": 2930,
      "Ġreflect": 2931,
      "ĠSince": 2932,
      "ulated": 2933,
      "Ġcompet": 2934,
      "ĠAssoci": 2935,
      "Ġpack": 2936,
      "Ġnut": 2937,
      "ads": 2938,
      "ĠUs": 2939,
      "Ġapplication": 2940,
      "cean": 2941,
      "ulf": 2942,
      "ĠMy": 2943,
      "ĠInter": 2944,
      "Ġgenetic": 2945,
      "Ġskills": 2946,
      "Ġadditional": 2947,
      "__": 2948,
      "Ġsouth": 2949,
      "thern": 2950,
      "ĠVir": 2951,
      "ternet": 2952,
      "Ġextreme": 2953,
      "Ġbooks": 2954,
      "Ġfamilies": 2955,
      "PA": 2956,
      "Ġsection": 2957,
      "uth": 2958,
      "irit": 2959,
      "ĠBar": 2960,
      "Ġseems": 2961,
      "Ġprotein": 2962,
      "OR": 2963,
      "Ġmother": 2964,
      "Ġlives": 2965,
      "Ġsafe": 2966,
      "oes": 2967,
      "ulate": 2968,
      "ĠFirst": 2969,
      "Ġcommand": 2970,
      "Ġhumans": 2971,
      "Ġsafety": 2972,
      "Ġdescribed": 2973,
      "ĠPa": 2974,
      "ĠOf": 2975,
      "ift": 2976,
      "Ġselect": 2977,
      "aily": 2978,
      "ĠSocial": 2979,
      "Ġtar": 2980,
      "Ġhundred": 2981,
      "Ġcompared": 2982,
      "Ġcitiz": 2983,
      "anced": 2984,
      "ĠSm": 2985,
      "Ġbroad": 2986,
      "Ġtur": 2987,
      "Ġtalk": 2988,
      "Ġcontinued": 2989,
      "hold": 2990,
      "uge": 2991,
      "Ġmach": 2992,
      "ided": 2993,
      "Ġcompany": 2994,
      "Ġdefin": 2995,
      "Ġlimited": 2996,
      "Ġhabit": 2997,
      "Ġreview": 2998,
      "rael": 2999,
      "Ġprep": 3000,
      "Ġnews": 3001,
      "pper": 3002,
      "Ġsociety": 3003,
      "Ġculture": 3004,
      "ĠFeb": 3005,
      "Ġregular": 3006,
      "Ġcheck": 3007,
      "ises": 3008,
      "elling": 3009,
      "Ġclean": 3010,
      "cohol": 3011,
      "ufact": 3012,
      "see": 3013,
      "Ġinstead": 3014,
      "Ġwebs": 3015,
      "Ġimplement": 3016,
      "Ġattention": 3017,
      "Ġdetermine": 3018,
      "lection": 3019,
      "Ġlack": 3020,
      "ĠMc": 3021,
      "ĠUN": 3022,
      "Ġappropri": 3023,
      "erson": 3024,
      "Ġtrade": 3025,
      "rates": 3026,
      "ying": 3027,
      "Ġstreng": 3028,
      "ĠDevelop": 3029,
      "ĠSeptember": 3030,
      "lied": 3031,
      "isms": 3032,
      "sect": 3033,
      "Ġste": 3034,
      "Ġexc": 3035,
      "Ġdisp": 3036,
      "ĠChar": 3037,
      "Ġinstit": 3038,
      "ĠDecember": 3039,
      "Ġforest": 3040,
      "ĠEuropean": 3041,
      "Ġprimary": 3042,
      "\",": 3043,
      "isions": 3044,
      "edia": 3045,
      "ĠHere": 3046,
      "Ġlarger": 3047,
      "Ġinside": 3048,
      "ĠMet": 3049,
      "ription": 3050,
      "ĠIndia": 3051,
      "Ġlaws": 3052,
      "wise": 3053,
      "Ġfeet": 3054,
      "Ġnight": 3055,
      "Ġidentify": 3056,
      "22": 3057,
      "oly": 3058,
      "Ġactive": 3059,
      "Ġcontains": 3060,
      "ĠSch": 3061,
      "uries": 3062,
      "ĠGl": 3063,
      "Ġexperien": 3064,
      "Ġreceived": 3065,
      "ĠInc": 3066,
      "ica": 3067,
      "hern": 3068,
      "Ġsequ": 3069,
      "Ġbeginning": 3070,
      "Ġcust": 3071,
      "ĠNot": 3072,
      "Ġprec": 3073,
      "Ġ2006": 3074,
      "It": 3075,
      "ama": 3076,
      "Ġord": 3077,
      "ĠLaw": 3078,
      "Ġpatient": 3079,
      "Ġpositive": 3080,
      "istry": 3081,
      "Ġdecl": 3082,
      "Ġdirectly": 3083,
      "pe": 3084,
      "Ġ...": 3085,
      "Ġquite": 3086,
      "Ġdraw": 3087,
      "Ġbab": 3088,
      "irm": 3089,
      "ĠCoun": 3090,
      "Ġcover": 3091,
      "Ġlegal": 3092,
      "Ġcat": 3093,
      "Ġbr": 3094,
      "arr": 3095,
      "term": 3096,
      "Ġ21": 3097,
      "Ġdamage": 3098,
      "Ġsoftware": 3099,
      "Ġtiss": 3100,
      "erg": 3101,
      "Ġsou": 3102,
      "ĠNovember": 3103,
      "Ġattack": 3104,
      "Ġep": 3105,
      "Ġdeal": 3106,
      "Ġmiles": 3107,
      "Ġencoura": 3108,
      "yl": 3109,
      "itte": 3110,
      "ĠGerman": 3111,
      "isl": 3112,
      "Ġhost": 3113,
      "Ġdiseases": 3114,
      "Ġdrink": 3115,
      "Ġbank": 3116,
      "gery": 3117,
      "yle": 3118,
      "Ġ2013": 3119,
      "ĠDNA": 3120,
      "oor": 3121,
      "Ġsleep": 3122,
      "Ġfav": 3123,
      "Ġden": 3124,
      "ension": 3125,
      "Ġgrowing": 3126,
      "yond": 3127,
      "Ġcross": 3128,
      "Ġreve": 3129,
      "Ġforces": 3130,
      "ellow": 3131,
      "Ġcorrect": 3132,
      "Ġwent": 3133,
      "icated": 3134,
      "Ġformer": 3135,
      "ĠOb": 3136,
      "Ġresponse": 3137,
      "Ġsolar": 3138,
      "Ġperformance": 3139,
      "craft": 3140,
      "iat": 3141,
      "Ġlooking": 3142,
      "24": 3143,
      "Ġtakes": 3144,
      "Ġwarm": 3145,
      "Ġbrought": 3146,
      "Ġmolec": 3147,
      "eth": 3148,
      "ĠPark": 3149,
      "Ġdoesn": 3150,
      "Ġhyd": 3151,
      "ground": 3152,
      "Ġ2005": 3153,
      "ĠServ": 3154,
      "ĠMon": 3155,
      "ĠBecause": 3156,
      "orthern": 3157,
      "Ġdoing": 3158,
      "Ġsupply": 3159,
      "Ġprivate": 3160,
      "gar": 3161,
      "ties": 3162,
      "Ġhor": 3163,
      "Ġeight": 3164,
      "ider": 3165,
      "ĠIsrael": 3166,
      "Ġtransm": 3167,
      "Ġhealthy": 3168,
      "Ġideas": 3169,
      "60": 3170,
      "Ġbacter": 3171,
      "oles": 3172,
      "ĠDis": 3173,
      "Ġefforts": 3174,
      "Ġlargest": 3175,
      "Ġmemory": 3176,
      "Ġgame": 3177,
      "ĠJournal": 3178,
      "Ġvitamin": 3179,
      "IV": 3180,
      "Ġaud": 3181,
      "Ġrout": 3182,
      "Ġmagn": 3183,
      "rag": 3184,
      "ĠYour": 3185,
      "ĠReg": 3186,
      "ĠEven": 3187,
      "Ġatmosp": 3188,
      "Ġvill": 3189,
      "ĠAng": 3190,
      "ĠAmericans": 3191,
      "hel": 3192,
      "Ġsil": 3193,
      "rab": 3194,
      "elt": 3195,
      "Ġshare": 3196,
      "ography": 3197,
      "anks": 3198,
      "Ġmanufact": 3199,
      "Ġprotection": 3200,
      "Ġwrite": 3201,
      "IC": 3202,
      "odies": 3203,
      "ham": 3204,
      "Ġdark": 3205,
      "Ġsevere": 3206,
      "Ġeval": 3207,
      "ologies": 3208,
      "Ġrecently": 3209,
      "Ġgoal": 3210,
      "Ġcenter": 3211,
      "Ġhimself": 3212,
      "ospital": 3213,
      "inate": 3214,
      "Ġmix": 3215,
      "ĠTechn": 3216,
      "Ġsexual": 3217,
      "den": 3218,
      "Ġlines": 3219,
      "used": 3220,
      "ony": 3221,
      "Ġsound": 3222,
      "Ġdead": 3223,
      "osing": 3224,
      "aces": 3225,
      "Ġ2000": 3226,
      "Ġacid": 3227,
      "Ġbenefits": 3228,
      "Ġfuel": 3229,
      "ĠEl": 3230,
      "Ġcool": 3231,
      "Ġdecre": 3232,
      "ĠArt": 3233,
      "Ġstarted": 3234,
      "set": 3235,
      "Ġproced": 3236,
      "Ġexcept": 3237,
      "Ġremain": 3238,
      "Ġgetting": 3239,
      "Ġleading": 3240,
      "ĠJews": 3241,
      "Ġice": 3242,
      "Ġbit": 3243,
      "Ġdog": 3244,
      "ĠCur": 3245,
      "Ġuser": 3246,
      "ĠKe": 3247,
      "Ġpregn": 3248,
      "Ġtransport": 3249,
      "ĠCanada": 3250,
      "lier": 3251,
      "Ġevolution": 3252,
      "ĠSociety": 3253,
      "Ġpp": 3254,
      "Ġmid": 3255,
      "Ġeat": 3256,
      "ĠCity": 3257,
      "ĠâĢ¢": 3258,
      "Ġproperty": 3259,
      "ĠAfrica": 3260,
      "enth": 3261,
      "ects": 3262,
      "Ġbirds": 3263,
      "40": 3264,
      "Ġbal": 3265,
      "ĠCour": 3266,
      "Ġbase": 3267,
      "oming": 3268,
      "Ġlove": 3269,
      "Ġ23": 3270,
      "Ġcarry": 3271,
      "Ġminutes": 3272,
      "ĠCommun": 3273,
      "Ġdemand": 3274,
      "Ġnegative": 3275,
      "ĠWilliam": 3276,
      "ĠCouncil": 3277,
      "uous": 3278,
      "uments": 3279,
      "Ġ=": 3280,
      "Ġimpl": 3281,
      "Ġadop": 3282,
      "Ġcoast": 3283,
      "Ġprior": 3284,
      "Ġeye": 3285,
      "rs": 3286,
      "Ġbott": 3287,
      "ceed": 3288,
      "alled": 3289,
      "ĠJes": 3290,
      "Ġprint": 3291,
      "Ġcommunication": 3292,
      "abetes": 3293,
      "Ġquickly": 3294,
      "arian": 3295,
      "Ġvict": 3296,
      "Ġpoints": 3297,
      "gypt": 3298,
      "Ġsites": 3299,
      "ĠPeople": 3300,
      "iles": 3301,
      "Ġagree": 3302,
      "This": 3303,
      "Ġder": 3304,
      "Ġdang": 3305,
      "ĠCD": 3306,
      "itting": 3307,
      "Ġplanet": 3308,
      "DA": 3309,
      "Ġgot": 3310,
      "ĠProf": 3311,
      "ĠEnvironment": 3312,
      "iency": 3313,
      "Ġeasy": 3314,
      "rance": 3315,
      "Ġsal": 3316,
      "Ġhyp": 3317,
      "Ġeconomy": 3318,
      "Ġbillion": 3319,
      "Ġadminist": 3320,
      "ĠChurch": 3321,
      "Ġgenes": 3322,
      "lam": 3323,
      "Ġmicro": 3324,
      "ĠGeneral": 3325,
      "Ġdrugs": 3326,
      "Ġanswer": 3327,
      "23": 3328,
      "inct": 3329,
      "Ġinn": 3330,
      "Ġones": 3331,
      "Ġstra": 3332,
      "aint": 3333,
      "Ġimages": 3334,
      "Ġcompon": 3335,
      "Ġdepend": 3336,
      "ios": 3337,
      "Ġwood": 3338,
      "ĠAre": 3339,
      "Ġlocated": 3340,
      "Ġtarget": 3341,
      "cop": 3342,
      "ference": 3343,
      "Ġtend": 3344,
      "Ġdied": 3345,
      "ruary": 3346,
      "Ġgene": 3347,
      "Ġinfluence": 3348,
      "29": 3349,
      "Ġbul": 3350,
      "rote": 3351,
      "ĠRed": 3352,
      "Ġrule": 3353,
      "Ġexposure": 3354,
      "Ġspeak": 3355,
      "eks": 3356,
      "Ġcard": 3357,
      "omb": 3358,
      "Ġ26": 3359,
      "Ġsoon": 3360,
      "Ġeasily": 3361,
      "ittee": 3362,
      "Ġfru": 3363,
      "asons": 3364,
      "ems": 3365,
      "ĠEast": 3366,
      "Ġarri": 3367,
      "Ġextra": 3368,
      "Ġcompanies": 3369,
      "nown": 3370,
      "Ġfoot": 3371,
      "Ġvot": 3372,
      "Ġdifference": 3373,
      "Ġsustain": 3374,
      "water": 3375,
      "ologist": 3376,
      "Ġrequires": 3377,
      "Ġmonitor": 3378,
      "Ġhands": 3379,
      "ridge": 3380,
      "Ġplaces": 3381,
      ".|": 3382,
      "Ġtree": 3383,
      "Ġshall": 3384,
      "Ġdecision": 3385,
      "Ġinfection": 3386,
      "Ġoffer": 3387,
      "iology": 3388,
      "ml": 3389,
      "Ġsold": 3390,
      "Ġcode": 3391,
      "Ġ60": 3392,
      "Ġobjects": 3393,
      "fficient": 3394,
      "Ġnuclear": 3395,
      "Ġeth": 3396,
      "Ġnamed": 3397,
      "ĠSur": 3398,
      "ĠMa": 3399,
      "ander": 3400,
      "Ġdispl": 3401,
      "EN": 3402,
      "Ġmom": 3403,
      "Ġult": 3404,
      "ĠGreat": 3405,
      "izations": 3406,
      "Ġking": 3407,
      "ĠViet": 3408,
      "Ġreading": 3409,
      "Ġdestro": 3410,
      "ĠEducation": 3411,
      "rogen": 3412,
      "Ġstress": 3413,
      "Ġcontribut": 3414,
      "Ġrare": 3415,
      "cks": 3416,
      "aly": 3417,
      "ĠEgypt": 3418,
      "ĠRoman": 3419,
      "Ġwaste": 3420,
      "Ġborn": 3421,
      "room": 3422,
      "ĠEm": 3423,
      "ocr": 3424,
      "Ġremains": 3425,
      "Ġteachers": 3426,
      "Ġtit": 3427,
      "ĠGree": 3428,
      "ĠVal": 3429,
      "Ġpresident": 3430,
      "Ġprogress": 3431,
      "ĠWeb": 3432,
      "Ġelse": 3433,
      "Ġaware": 3434,
      "Ġ193": 3435,
      "Ġkill": 3436,
      "ields": 3437,
      "Ġanti": 3438,
      "Ġcritical": 3439,
      "ibrary": 3440,
      "ĠAssociation": 3441,
      "vest": 3442,
      "Ġ2004": 3443,
      "Ġmultiple": 3444,
      "ĠPat": 3445,
      "ĠArch": 3446,
      "ancial": 3447,
      "70": 3448,
      "wide": 3449,
      "Ġsn": 3450,
      "Ġwaters": 3451,
      "Ġfather": 3452,
      "Ġlif": 3453,
      "Ġchalleng": 3454,
      "ilosoph": 3455,
      "Ġsam": 3456,
      "Ġdaily": 3457,
      "Ġegg": 3458,
      "Ġkids": 3459,
      "Ġcommerc": 3460,
      "ype": 3461,
      "Ġbasis": 3462,
      "iny": 3463,
      "itch": 3464,
      "ĠUnion": 3465,
      "Ġgradu": 3466,
      "Ġshowed": 3467,
      "ĠSystem": 3468,
      "edom": 3469,
      "ico": 3470,
      "Ġalt": 3471,
      "Ġrapid": 3472,
      "Ġcapac": 3473,
      "Ġoccurs": 3474,
      "Ġinvestig": 3475,
      "leb": 3476,
      "Ġunc": 3477,
      "Ġobt": 3478,
      "hens": 3479,
      "Ġsecurity": 3480,
      "Ġdevice": 3481,
      "Ġcosts": 3482,
      "EC": 3483,
      "Ġten": 3484,
      "Ġaim": 3485,
      "Ġmiss": 3486,
      "ida": 3487,
      "ĠWater": 3488,
      "Ġrates": 3489,
      "Ġuseful": 3490,
      "Ġsurround": 3491,
      "ĠProgram": 3492,
      "Ġallows": 3493,
      "Ġcitizens": 3494,
      "ĠMor": 3495,
      "Ġsaw": 3496,
      "iques": 3497,
      "Ġelements": 3498,
      "Wh": 3499,
      "Ġtold": 3500,
      "irl": 3501,
      "Ġwebsite": 3502,
      "26": 3503,
      "Ġcou": 3504,
      "ĠMich": 3505,
      "Ġ195": 3506,
      "Ġappropriate": 3507,
      "book": 3508,
      "oke": 3509,
      "Ġmut": 3510,
      "Ġund": 3511,
      "Ġstru": 3512,
      "ĠOver": 3513,
      "Ġperhaps": 3514,
      "iverse": 3515,
      "Ġessential": 3516,
      "ĠMuslim": 3517,
      "odes": 3518,
      "Ġi": 3519,
      "Ġdry": 3520,
      "ils": 3521,
      "ipment": 3522,
      "ĠSpec": 3523,
      "Ġreligious": 3524,
      "Ġphysic": 3525,
      "OS": 3526,
      "iers": 3527,
      "Ġharm": 3528,
      "Ġgard": 3529,
      "ĠSim": 3530,
      "Ġweb": 3531,
      "Ġunique": 3532,
      "ĠRead": 3533,
      "Ġsuccessful": 3534,
      "AL": 3535,
      "ĠNAS": 3536,
      "Ġweeks": 3537,
      "ĠThus": 3538,
      "Ġestablish": 3539,
      "hest": 3540,
      "Ġmission": 3541,
      "Ġancient": 3542,
      "Ġsomeone": 3543,
      "airs": 3544,
      "ĠColle": 3545,
      "Ġasked": 3546,
      "Ġriver": 3547,
      "mar": 3548,
      "Ġcred": 3549,
      "Ġfight": 3550,
      "Ġang": 3551,
      "ĠHigh": 3552,
      "rief": 3553,
      "astic": 3554,
      "ĠEngland": 3555,
      "II": 3556,
      "Ġtrib": 3557,
      "Ġbeyond": 3558,
      "ĠGreen": 3559,
      "Ġtraditional": 3560,
      "Ġwa": 3561,
      "Ġdy": 3562,
      "resh": 3563,
      "ĠOur": 3564,
      "Ġexpand": 3565,
      "Ġexpected": 3566,
      "Ġdiscovered": 3567,
      "Ġcurrently": 3568,
      "Ġbeg": 3569,
      "Ġcoming": 3570,
      "Ġformed": 3571,
      "Ġsummer": 3572,
      "ĠCounty": 3573,
      "ED": 3574,
      "Ġmiddle": 3575,
      "Ġlength": 3576,
      "Ġseason": 3577,
      "apter": 3578,
      "Ġhighly": 3579,
      "inese": 3580,
      "Ġlocation": 3581,
      "Ġensure": 3582,
      "ĠOctober": 3583,
      "ev": 3584,
      "Ġwrote": 3585,
      "Ġreports": 3586,
      "ĠMedicine": 3587,
      "ĠFebruary": 3588,
      "Ġversion": 3589,
      "27": 3590,
      "atur": 3591,
      "Ġwoman": 3592,
      "Ġprinc": 3593,
      "Ġprison": 3594,
      "Ġoccup": 3595,
      "time": 3596,
      "year": 3597,
      "oring": 3598,
      "Ġpen": 3599,
      "Ġgave": 3600,
      "Ġ186": 3601,
      "ĠCommission": 3602,
      "Ġapplications": 3603,
      "Ġresponsible": 3604,
      "Ġvirus": 3605,
      "Ġadults": 3606,
      "bit": 3607,
      "come": 3608,
      "entially": 3609,
      "ests": 3610,
      "ĠEach": 3611,
      "Ġcold": 3612,
      "ĠAnother": 3613,
      "Ġtransl": 3614,
      "Ġseparate": 3615,
      "aid": 3616,
      "enty": 3617,
      "ought": 3618,
      "Ġanything": 3619,
      "Ġplaced": 3620,
      "Ġalone": 3621,
      "ĠAlso": 3622,
      "Ġmember": 3623,
      "Ġspeed": 3624,
      "rest": 3625,
      "Ġball": 3626,
      "ĠMal": 3627,
      "ĠHuman": 3628,
      "28": 3629,
      "sec": 3630,
      "amer": 3631,
      "resp": 3632,
      "Ġ2003": 3633,
      "ĠProt": 3634,
      "iar": 3635,
      "inated": 3636,
      "Ġsch": 3637,
      "ĠFound": 3638,
      "Ġ28": 3639,
      "Ġacqu": 3640,
      "cles": 3641,
      "ĠUse": 3642,
      "Ġradio": 3643,
      "unte": 3644,
      "Ġcollection": 3645,
      "ĠVirgin": 3646,
      "Ġtoxic": 3647,
      "ĠWhy": 3648,
      "Ġvideo": 3649,
      "equ": 3650,
      "iot": 3651,
      "ky": 3652,
      "Ġ*": 3653,
      "Ġbad": 3654,
      "pped": 3655,
      "udd": 3656,
      "Ġagricult": 3657,
      "Ġtools": 3658,
      "Ġpow": 3659,
      "Ġdate": 3660,
      "Ġhar": 3661,
      "Ġcontroll": 3662,
      "Ġaccom": 3663,
      "Ġappears": 3664,
      "Ġhon": 3665,
      "ĠSol": 3666,
      "iber": 3667,
      "Ġscreen": 3668,
      "hemat": 3669,
      "ĠNASA": 3670,
      "Ġsem": 3671,
      "oud": 3672,
      "Ġhot": 3673,
      "ĠMod": 3674,
      "Ġalcohol": 3675,
      "Ġadj": 3676,
      "Ġeffort": 3677,
      "Ġhelps": 3678,
      "Ġpopulations": 3679,
      "Ġveget": 3680,
      "Ġachieve": 3681,
      "ĠGovernment": 3682,
      "ĠCongress": 3683,
      "ban": 3684,
      "idents": 3685,
      "verse": 3686,
      "ĠHouse": 3687,
      "aced": 3688,
      "ĠUnder": 3689,
      "Ġfoods": 3690,
      "Ġallowed": 3691,
      "ĠJesus": 3692,
      "Ġfinal": 3693,
      "Ġreach": 3694,
      "Ġfollowed": 3695,
      "Ġsmaller": 3696,
      "Ġvalues": 3697,
      "ĠRepublic": 3698,
      "lor": 3699,
      "new": 3700,
      "Ġwalk": 3701,
      "ĠThen": 3702,
      "ully": 3703,
      "Ġaspect": 3704,
      "ession": 3705,
      "ĠJust": 3706,
      "ĠJames": 3707,
      "Ġconstruction": 3708,
      "Ġbenefit": 3709,
      "icate": 3710,
      "ĠRel": 3711,
      "Ġexercise": 3712,
      "racy": 3713,
      "Ġelectr": 3714,
      "fect": 3715,
      "itis": 3716,
      "omy": 3717,
      "ĠMary": 3718,
      "Ġdisorders": 3719,
      "rupt": 3720,
      "Ġapplied": 3721,
      "Ġconstruct": 3722,
      "Ġcopy": 3723,
      "ĠTrans": 3724,
      "Ġstar": 3725,
      "Ġ2001": 3726,
      "Ġearlier": 3727,
      "Ġhistorical": 3728,
      "ĠDevelopment": 3729,
      "AM": 3730,
      "ford": 3731,
      "mat": 3732,
      "Ġ190": 3733,
      "ĠChinese": 3734,
      "Ġorganization": 3735,
      "Ġcompletely": 3736,
      "Ġvirt": 3737,
      "'ve": 3738,
      "Ġtum": 3739,
      "Ġrock": 3740,
      "Ġexec": 3741,
      "Ġstrateg": 3742,
      "Ġstandards": 3743,
      "ĠChildren": 3744,
      "ĠCollege": 3745,
      "ken": 3746,
      "oe": 3747,
      "Ġmis": 3748,
      "ĠTod": 3749,
      "imal": 3750,
      "Ġexact": 3751,
      "ĠFin": 3752,
      "Ġmodels": 3753,
      "Ġcultural": 3754,
      "Ġsituation": 3755,
      "Ġveh": 3756,
      "Ġlayer": 3757,
      "nes": 3758,
      "ximately": 3759,
      "Ġcra": 3760,
      "ĠAv": 3761,
      "Ġyouth": 3762,
      "ocol": 3763,
      "Ġtesting": 3764,
      "ĠCourt": 3765,
      "joy": 3766,
      "idel": 3767,
      "cious": 3768,
      "Ġdistance": 3769,
      "Ġdevices": 3770,
      "St": 3771,
      "ingu": 3772,
      "ĠAut": 3773,
      "semb": 3774,
      "ĠSer": 3775,
      "ĠPublic": 3776,
      "Ġrules": 3777,
      "Ġassign": 3778,
      "Ġseek": 3779,
      "Ġaffected": 3780,
      "ĠPhil": 3781,
      "Ġreceive": 3782,
      "Ġtherapy": 3783,
      "ĠSw": 3784,
      "lick": 3785,
      "Ġoffice": 3786,
      "Ġfeed": 3787,
      "ĠRev": 3788,
      "Ġequipment": 3789,
      "Ġdu": 3790,
      "Ġnothing": 3791,
      "Ġusers": 3792,
      "Ġtele": 3793,
      "Ġreference": 3794,
      "Ġreduced": 3795,
      "bl": 3796,
      "ste": 3797,
      "ĠAir": 3798,
      "Ġsurgery": 3799,
      "Ġcalc": 3800,
      "orge": 3801,
      "ĠSan": 3802,
      "Ġstream": 3803,
      "ula": 3804,
      "rome": 3805,
      "Ġquant": 3806,
      "Ġexperim": 3807,
      "Ġdetermined": 3808,
      "Ġdiabetes": 3809,
      "Ġpet": 3810,
      "Ġbodies": 3811,
      "ĠTheir": 3812,
      "Ġ27": 3813,
      "Ġspirit": 3814,
      "ĠInternet": 3815,
      "Ġemot": 3816,
      "Ġequal": 3817,
      "Ġolder": 3818,
      "Â°": 3819,
      "Ġsect": 3820,
      "Ġwon": 3821,
      "icip": 3822,
      "Ġgives": 3823,
      "ĠMex": 3824,
      "ĠWestern": 3825,
      "Ġ29": 3826,
      "ĠLa": 3827,
      "Ġadm": 3828,
      "Ġfinancial": 3829,
      "ha": 3830,
      "Ġinsect": 3831,
      "Ġfactor": 3832,
      "Ġinteresting": 3833,
      "Ġmajority": 3834,
      "Ġlimit": 3835,
      "ĠGermany": 3836,
      "Ġcustom": 3837,
      "ĠHen": 3838,
      "riage": 3839,
      "Ġthinking": 3840,
      "Ġpassed": 3841,
      "Ġmaintain": 3842,
      "head": 3843,
      "Ġ2002": 3844,
      "Ġprojects": 3845,
      "Ġ:": 3846,
      "Ġimag": 3847,
      "Ġvacc": 3848,
      "izes": 3849,
      "Ġjournal": 3850,
      "Ġbecomes": 3851,
      "Ġrob": 3852,
      "Ġprocesses": 3853,
      "ĠPlan": 3854,
      "Ġdrive": 3855,
      "known": 3856,
      "Ġhope": 3857,
      "Ġimportance": 3858,
      "Ġthousands": 3859,
      ".;": 3860,
      "Ġson": 3861,
      "ĠPort": 3862,
      "Ġautom": 3863,
      "Ġrecords": 3864,
      "Ġeyes": 3865,
      "Ġiniti": 3866,
      "bur": 3867,
      "more": 3868,
      "su": 3869,
      "Ġfear": 3870,
      "Ġmention": 3871,
      "ĠSun": 3872,
      "Ġcompar": 3873,
      "ondon": 3874,
      "Ġrespond": 3875,
      "Ġmax": 3876,
      "Ġfunctions": 3877,
      "Ġtrees": 3878,
      "Ġcommercial": 3879,
      "Ġ22": 3880,
      "ees": 3881,
      "rew": 3882,
      "rees": 3883,
      "Ġhous": 3884,
      "Ġlegisl": 3885,
      "Ġceleb": 3886,
      "ĠAustralia": 3887,
      "lin": 3888,
      "Ġaid": 3889,
      "ĠMi": 3890,
      "Ġpeace": 3891,
      "Ġmedicine": 3892,
      "Ġadvant": 3893,
      "Ġbreast": 3894,
      "Ġexisting": 3895,
      "erior": 3896,
      "oma": 3897,
      "ĠBra": 3898,
      "ĠDirect": 3899,
      "Ġblock": 3900,
      "Ġfeatures": 3901,
      "Ġtechniques": 3902,
      "ĠMedical": 3903,
      "Ġstatus": 3904,
      "AC": 3905,
      "men": 3906,
      "Ġcrop": 3907,
      "aled": 3908,
      "irection": 3909,
      "Ġdidn": 3910,
      "Ġanaly": 3911,
      "Ġdestroy": 3912,
      "Ġmental": 3913,
      "ĠTex": 3914,
      "ĠLear": 3915,
      "iece": 3916,
      "rane": 3917,
      "Ġillust": 3918,
      "Ġdegree": 3919,
      "ding": 3920,
      "Ġreasons": 3921,
      "Ġworked": 3922,
      "Ġpurpose": 3923,
      "ET": 3924,
      "oration": 3925,
      "ĠNet": 3926,
      "Ġproviding": 3927,
      "Ġtissue": 3928,
      "ias": 3929,
      "vant": 3930,
      "itz": 3931,
      "Ġfigure": 3932,
      "ĠDay": 3933,
      "ĠInst": 3934,
      "Ġoperations": 3935,
      "Ġbelief": 3936,
      "co": 3937,
      "itable": 3938,
      "Ġpan": 3939,
      "Ġneigh": 3940,
      "Ġprin": 3941,
      "Ġpredict": 3942,
      "Ġobserved": 3943,
      "Ġstrength": 3944,
      "Ġlat": 3945,
      "Ġnames": 3946,
      "Ġreleased": 3947,
      "Ġcapacity": 3948,
      "aign": 3949,
      "yro": 3950,
      "ĠDes": 3951,
      "Ġroom": 3952,
      "Ġpersons": 3953,
      "Ġtechnologies": 3954,
      "Ġbelieved": 3955,
      "load": 3956,
      "78": 3957,
      "ech": 3958,
      "ĠRo": 3959,
      "Ġweather": 3960,
      "Ġadapt": 3961,
      "Ġgoes": 3962,
      "Ġfindings": 3963,
      "Ġmeasures": 3964,
      "BN": 3965,
      "rition": 3966,
      "ara": 3967,
      "ciples": 3968,
      "Ġconservation": 3969,
      "Ġconflic": 3970,
      "Ġtowards": 3971,
      "cial": 3972,
      "Ġsed": 3973,
      "ĠMass": 3974,
      "Ġtrack": 3975,
      "ĠNews": 3976,
      "aught": 3977,
      "Ġelectricity": 3978,
      "iable": 3979,
      "off": 3980,
      "Ġfair": 3981,
      "Ġconver": 3982,
      "abilities": 3983,
      "Ġroad": 3984,
      "Ġnumerous": 3985,
      "Ġtrial": 3986,
      "porary": 3987,
      "Ġtrying": 3988,
      "Ġcoord": 3989,
      "Ġtransfer": 3990,
      "Ch": 3991,
      "Ġpric": 3992,
      "ĠSub": 3993,
      "phas": 3994,
      "Ġrain": 3995,
      "gal": 3996,
      "Ġtable": 3997,
      "encies": 3998,
      "Ġupper": 3999,
      "Ġrot": 4000,
      "icking": 4001,
      "Ġidentified": 4002,
      "Ġtreated": 4003,
      "unting": 4004,
      "Ġsuggests": 4005,
      "ĠPaul": 4006,
      "ht": 4007,
      "Ġstay": 4008,
      "Ġstaff": 4009,
      "ria": 4010,
      "Ġpractices": 4011,
      "Ġturned": 4012,
      "Ġhom": 4013,
      "ĠAlex": 4014,
      "Ġclinical": 4015,
      "wards": 4016,
      "Ġchanged": 4017,
      "ĠInformation": 4018,
      "RI": 4019,
      "ygen": 4020,
      "Ġmo": 4021,
      "Ġexpect": 4022,
      "Ġenter": 4023,
      "Ġslight": 4024,
      "Ġrelatively": 4025,
      "asion": 4026,
      "Ġwhom": 4027,
      "ĠWomen": 4028,
      "Ġemp": 4029,
      "Ġefficient": 4030,
      "ĠVirginia": 4031,
      "eared": 4032,
      "iant": 4033,
      "och": 4034,
      "orage": 4035,
      "Ġfully": 4036,
      "que": 4037,
      "ĠOff": 4038,
      "Ġrepe": 4039,
      "Ġattract": 4040,
      "ĠProv": 4041,
      "ographic": 4042,
      "Ġsteps": 4043,
      "Ġchemicals": 4044,
      ".||": 4045,
      "Ġmal": 4046,
      "Ġdivid": 4047,
      "ola": 4048,
      "ĠCivil": 4049,
      "ortion": 4050,
      "Ġleave": 4051,
      "Ġenjoy": 4052,
      "Ġdefined": 4053,
      "Ġinsp": 4054,
      "Ġforeign": 4055,
      "Ġestimated": 4056,
      "ĠToday": 4057,
      "33": 4058,
      "reet": 4059,
      "enge": 4060,
      "Ġfoss": 4061,
      "Ġseven": 4062,
      "Ġnoted": 4063,
      "ibly": 4064,
      "ĠKen": 4065,
      "erved": 4066,
      "Ġpowerful": 4067,
      "ĠPhys": 4068,
      "iance": 4069,
      "ÃŃ": 4070,
      "Ġbreat": 4071,
      "Ġmob": 4072,
      "Ġconsequ": 4073,
      "ĠLord": 4074,
      "Ġparty": 4075,
      "Ġexpress": 4076,
      "Ġeverything": 4077,
      "Ġsolution": 4078,
      "oo": 4079,
      "aling": 4080,
      "ĠMars": 4081,
      "ĠEv": 4082,
      "Ġves": 4083,
      "Ġshape": 4084,
      "Ġplans": 4085,
      "ĠThom": 4086,
      "ensus": 4087,
      "Ġindustrial": 4088,
      "Ġillness": 4089,
      "Ġopportunity": 4090,
      "rations": 4091,
      "wor": 4092,
      "Ġarmy": 4093,
      "ĠIslam": 4094,
      "Ġcreating": 4095,
      "Ġfaith": 4096,
      "90": 4097,
      "Americ": 4098,
      "pris": 4099,
      "atin": 4100,
      "antic": 4101,
      "ĠAsia": 4102,
      "Ġinstru": 4103,
      "Ġstructures": 4104,
      "related": 4105,
      "Ġcities": 4106,
      "Ġbound": 4107,
      "ĠCO": 4108,
      "Ġsurvey": 4109,
      "Ġregions": 4110,
      "Ġassist": 4111,
      "Ġdifferences": 4112,
      "Ġload": 4113,
      "ĠBritain": 4114,
      "Ġalternative": 4115,
      "Ġmoment": 4116,
      "hors": 4117,
      "Ġbone": 4118,
      "Ġnorm": 4119,
      "rian": 4120,
      "Ġoffers": 4121,
      "Ġpresence": 4122,
      "Ġincreases": 4123,
      "Ġtub": 4124,
      "Ġcru": 4125,
      "ĠBro": 4126,
      "ĠLou": 4127,
      "Ġchance": 4128,
      "Ġrelease": 4129,
      "US": 4130,
      "ĠMuseum": 4131,
      "ocks": 4132,
      "Ġsymb": 4133,
      "Ġscale": 4134,
      "Ġdecades": 4135,
      "Ġsigns": 4136,
      "Ġdistribution": 4137,
      "Ġconstant": 4138,
      "Ġliterature": 4139,
      "uff": 4140,
      "oted": 4141,
      "ĠPal": 4142,
      "apers": 4143,
      "cont": 4144,
      "Ġserver": 4145,
      "Ġorganizations": 4146,
      "Ġinterpret": 4147,
      "ĠSam": 4148,
      "ĠIran": 4149,
      "ĠDec": 4150,
      "Ġenh": 4151,
      "198": 4152,
      "Ġcommonly": 4153,
      "Ġclearly": 4154,
      "Ġmoving": 4155,
      "Ġindependent": 4156,
      "Ġbacteria": 4157,
      "respond": 4158,
      "35": 4159,
      "RE": 4160,
      "Ġlived": 4161,
      "Ġgirl": 4162,
      "ĠCop": 4163,
      "ĠCast": 4164,
      "ogen": 4165,
      "Ġtruth": 4166,
      "Ġfriends": 4167,
      "Ġbaby": 4168,
      "Ġevalu": 4169,
      "za": 4170,
      "ĠRober": 4171,
      "Ġacadem": 4172,
      "45": 4173,
      "gress": 4174,
      "erate": 4175,
      "Ġphen": 4176,
      "Ġisn": 4177,
      "ĠCath": 4178,
      "ĠLondon": 4179,
      "Ġhighest": 4180,
      "ĠScient": 4181,
      "Ġheavy": 4182,
      "Ġfast": 4183,
      "Ġlic": 4184,
      "Ġforward": 4185,
      "ĠMiss": 4186,
      "Ġqual": 4187,
      "ĠEnergy": 4188,
      "clus": 4189,
      "Ġrunning": 4190,
      "Ġchoice": 4191,
      "Ġimmediately": 4192,
      "ault": 4193,
      "Ġpal": 4194,
      "ald": 4195,
      "level": 4196,
      "Ġlinks": 4197,
      "ĠIts": 4198,
      "Ġeducational": 4199,
      "Ġgrant": 4200,
      "Ġeventually": 4201,
      "Ġwinter": 4202,
      "atab": 4203,
      "ĠMount": 4204,
      "ĠFrance": 4205,
      "Ġvote": 4206,
      "Ġphilosoph": 4207,
      "Ġpolice": 4208,
      "Ġ1999": 4209,
      "Ġconducted": 4210,
      "Ġign": 4211,
      "Ġdirection": 4212,
      "roc": 4213,
      "Ġgal": 4214,
      "Ġinfl": 4215,
      "Ġtypically": 4216,
      "Ġapproximately": 4217,
      "ĠFlor": 4218,
      "Ġpicture": 4219,
      "Ġdoub": 4220,
      "ĠMart": 4221,
      "Ġcontrast": 4222,
      "Ġbox": 4223,
      "Ġopin": 4224,
      "ĠCommon": 4225,
      "rm": 4226,
      "Ġtou": 4227,
      "Ġspring": 4228,
      "Ġblue": 4229,
      "band": 4230,
      "rehens": 4231,
      "Ġsac": 4232,
      "ĠWork": 4233,
      "Ġrise": 4234,
      "ĠProject": 4235,
      "Ġinstruct": 4236,
      "Ġwidely": 4237,
      "back": 4238,
      "cast": 4239,
      "Ġocean": 4240,
      "ĠISBN": 4241,
      "ĠTexas": 4242,
      "itors": 4243,
      "ĠSen": 4244,
      "pping": 4245,
      "orpor": 4246,
      "Ġpul": 4247,
      "Ġvia": 4248,
      "Ġsyn": 4249,
      "oyal": 4250,
      "Ġexperiment": 4251,
      "Ġproperties": 4252,
      "Ġconnection": 4253,
      "Ġopportunities": 4254,
      "Ġfemale": 4255,
      "pan": 4256,
      "Ġmer": 4257,
      "ĠGr": 4258,
      "ously": 4259,
      "Ġbelong": 4260,
      "Ġswe": 4261,
      "Ġcateg": 4262,
      "ifically": 4263,
      "ologists": 4264,
      "ĠWhite": 4265,
      "Ġminor": 4266,
      "Ġboard": 4267,
      "Ġmessage": 4268,
      "Ġvessel": 4269,
      "Ġwond": 4270,
      "Ġbra": 4271,
      "Ġconv": 4272,
      "Ġchurch": 4273,
      "Ġkid": 4274,
      "ĠTwo": 4275,
      "'ll": 4276,
      "ona": 4277,
      "Ġhuge": 4278,
      "Ġlib": 4279,
      "Ġbeaut": 4280,
      "Ġstorage": 4281,
      "ĠMD": 4282,
      "ĠBay": 4283,
      "Ġrich": 4284,
      "ĠOnce": 4285,
      "ellig": 4286,
      "Ġpoly": 4287,
      "Ġcoal": 4288,
      "Ġpurch": 4289,
      "Ġfreedom": 4290,
      "key": 4291,
      "ĠLife": 4292,
      "Ġnovel": 4293,
      "Ġeveryone": 4294,
      "Ġcarried": 4295,
      "Ġannual": 4296,
      "Ġrecommend": 4297,
      "Ġofficials": 4298,
      "Ġpiece": 4299,
      "ĠWord": 4300,
      "ĠFore": 4301,
      "Ġenem": 4302,
      "spec": 4303,
      "Ġteacher": 4304,
      "Ġoxygen": 4305,
      "Ġfavor": 4306,
      "Ġtim": 4307,
      "ĠTest": 4308,
      "ament": 4309,
      "ĠRich": 4310,
      "Ġvent": 4311,
      "Ġemissions": 4312,
      "Ġlearned": 4313,
      "clop": 4314,
      "ĠBlack": 4315,
      "Ġreaction": 4316,
      "Ġpatterns": 4317,
      "ĠAcadem": 4318,
      "ĠEnvironmental": 4319,
      "Ġunf": 4320,
      "oviet": 4321,
      "ribute": 4322,
      "ĠGeorge": 4323,
      "Ġatmosphere": 4324,
      "HE": 4325,
      "name": 4326,
      "rog": 4327,
      "iding": 4328,
      "Ġhair": 4329,
      "Ġexposed": 4330,
      "Ġinstance": 4331,
      "Ġwatch": 4332,
      "ndrome": 4333,
      "Ġmit": 4334,
      "ĠMag": 4335,
      "ĠDem": 4336,
      "Ġchronic": 4337,
      "Ġunivers": 4338,
      "Ġcorrespond": 4339,
      "Ġprofessional": 4340,
      "Ġremoved": 4341,
      "bed": 4342,
      "isher": 4343,
      "itect": 4344,
      "Ġmig": 4345,
      "ĠMil": 4346,
      "Ġhearing": 4347,
      "Ġrat": 4348,
      "unction": 4349,
      "Ġactions": 4350,
      "Ġserve": 4351,
      "Ġvision": 4352,
      "Ġgeneration": 4353,
      "Ġmuscle": 4354,
      "Ġmotor": 4355,
      "Ġexamples": 4356,
      "house": 4357,
      "Ġcry": 4358,
      "ellect": 4359,
      "Ġprice": 4360,
      "Ġ70": 4361,
      "Ġcounter": 4362,
      "Ġschol": 4363,
      "32": 4364,
      "ij": 4365,
      "rus": 4366,
      "Ġfresh": 4367,
      "Ġreb": 4368,
      "ĠArab": 4369,
      "Ġweak": 4370,
      "Ġpartners": 4371,
      "Ġinform": 4372,
      "Ġquar": 4373,
      "Ġauthors": 4374,
      "Ġantib": 4375,
      "BC": 4376,
      "fort": 4377,
      "Ġsand": 4378,
      "Ġpages": 4379,
      "Ġdrop": 4380,
      "Ġnor": 4381,
      "ĠDon": 4382,
      "Ġrul": 4383,
      "Ġprofessor": 4384,
      "Ġcampaign": 4385,
      "Ġmic": 4386,
      "Ġalle": 4387,
      "ĠLet": 4388,
      "Ġresistance": 4389,
      "Ġclust": 4390,
      "Ġfeature": 4391,
      "ĠAtl": 4392,
      "Ġstrugg": 4393,
      "Ġbran": 4394,
      "Ġmap": 4395,
      "Ġnative": 4396,
      "Ġrace": 4397,
      "Ġflood": 4398,
      "Ġ1990": 4399,
      "Ġsolid": 4400,
      "Ġannoun": 4401,
      "ĠChev": 4402,
      "Ġexhib": 4403,
      "Ġarticles": 4404,
      "Ġmilk": 4405,
      "Ġpolicies": 4406,
      "zing": 4407,
      "Ġstories": 4408,
      "osy": 4409,
      "Ġvisual": 4410,
      "Ġproposed": 4411,
      "Ġconclud": 4412,
      "Ġwear": 4413,
      "Ġgiving": 4414,
      "verty": 4415,
      "Ġdisorder": 4416,
      "berg": 4417,
      "Ġemphas": 4418,
      "Ġmemb": 4419,
      "ĠSpace": 4420,
      "ĠAbout": 4421,
      "force": 4422,
      "Ġmoved": 4423,
      "Ġconsumption": 4424,
      "Ġimmune": 4425,
      "Ġmachine": 4426,
      "ĠService": 4427,
      "tical": 4428,
      "Ġ#": 4429,
      "ĠSl": 4430,
      "ĠPM": 4431,
      "ĠHIV": 4432,
      "rence": 4433,
      "Ġpoverty": 4434,
      "Ġdistinct": 4435,
      "Ġserved": 4436,
      "Ġmotion": 4437,
      "Ġmeeting": 4438,
      "ĠMiG": 4439,
      "64": 4440,
      "met": 4441,
      "Ġcook": 4442,
      "ĠDef": 4443,
      "aped": 4444,
      "cipl": 4445,
      "Ġemail": 4446,
      "Ġremained": 4447,
      "Ġdisplay": 4448,
      "isp": 4449,
      "arge": 4450,
      "ĠElect": 4451,
      "Ġvary": 4452,
      "ĠGra": 4453,
      "Ġspect": 4454,
      "Ġresource": 4455,
      "Ġteaching": 4456,
      "Ġchoose": 4457,
      "Ġintroduced": 4458,
      "ĠTur": 4459,
      "ĠBer": 4460,
      "essor": 4461,
      "Ġround": 4462,
      "ĠJer": 4463,
      "Ġupd": 4464,
      "Ġdesp": 4465,
      "Ġactual": 4466,
      "Ġletter": 4467,
      "Ġproteins": 4468,
      "Ġwrong": 4469,
      "CC": 4470,
      "ero": 4471,
      "ĠMem": 4472,
      "Ġship": 4473,
      "Ġradiation": 4474,
      "can": 4475,
      "ped": 4476,
      "Ġwest": 4477,
      "Ġhomes": 4478,
      "Ġeating": 4479,
      "ĠLabor": 4480,
      "eces": 4481,
      "Ġkilled": 4482,
      "Ġstatement": 4483,
      "Ġinterested": 4484,
      "Ġfailure": 4485,
      "Ġdigital": 4486,
      "ishes": 4487,
      "ĠMr": 4488,
      "umber": 4489,
      "Ġapply": 4490,
      "Ġbecoming": 4491,
      "Ġexpression": 4492,
      "ĠConstitution": 4493,
      "iox": 4494,
      "Ġ80": 4495,
      "Ġinvolve": 4496,
      "Ġinnov": 4497,
      "ping": 4498,
      "Ġsort": 4499,
      "ctic": 4500,
      "istan": 4501,
      "ĠUp": 4502,
      "Ġworth": 4503,
      "Ġcontract": 4504,
      "Ġstudied": 4505,
      "Ġpresented": 4506,
      "ĠCancer": 4507,
      "Ġsitu": 4508,
      "ĠTechnology": 4509,
      "ndom": 4510,
      "Ġfix": 4511,
      "aria": 4512,
      "Ġdim": 4513,
      "Ġnations": 4514,
      "ĠSoviet": 4515,
      "uted": 4516,
      "raction": 4517,
      "Ġstem": 4518,
      "ager": 4519,
      "ensity": 4520,
      "Ġcounty": 4521,
      "Ġsecret": 4522,
      "Ġdepos": 4523,
      "Ġplanning": 4524,
      "Ġoccurred": 4525,
      "Ġspeech": 4526,
      "Ġabsor": 4527,
      "Ġfruit": 4528,
      "rig": 4529,
      "Ġ+": 4530,
      "Ġplease": 4531,
      "arrow": 4532,
      "Ġreached": 4533,
      "ĠCamb": 4534,
      "ĠMat": 4535,
      "Ġcontext": 4536,
      "Ġpret": 4537,
      "Ġrandom": 4538,
      "Ġcombination": 4539,
      "Ġreturned": 4540,
      "Ġdetails": 4541,
      "75": 4542,
      "Ġlung": 4543,
      "Ġgold": 4544,
      "ĠEvery": 4545,
      "akers": 4546,
      "Ġoverall": 4547,
      "Ġbehavi": 4548,
      "ĠStudents": 4549,
      "Ġsquare": 4550,
      "38": 4551,
      "win": 4552,
      "Ġfields": 4553,
      "Ġdram": 4554,
      "ĠPet": 4555,
      "ĠBel": 4556,
      "Ġarr": 4557,
      "Ġ31": 4558,
      "Ġanyone": 4559,
      "Ġhelped": 4560,
      "Ġmathemat": 4561,
      "ĠQue": 4562,
      "Ġtro": 4563,
      "itness": 4564,
      "Ġisol": 4565,
      "anging": 4566,
      "Ġassum": 4567,
      "Ġextremely": 4568,
      "Ġbottom": 4569,
      "yroid": 4570,
      "Ġliqu": 4571,
      "Ġstage": 4572,
      "ĠPenn": 4573,
      "Ġnote": 4574,
      "Ġelection": 4575,
      "Ġreferred": 4576,
      "Ġsusp": 4577,
      "tes": 4578,
      "Ġgain": 4579,
      "Ġstars": 4580,
      "Ġchief": 4581,
      "Ġarm": 4582,
      "Ġdetect": 4583,
      "Ġlinked": 4584,
      "Ġsamples": 4585,
      "ael": 4586,
      "Ġcast": 4587,
      "Ġfert": 4588,
      "Ġmere": 4589,
      "Ġstim": 4590,
      "oper": 4591,
      "Ġmeant": 4592,
      "Ġreprodu": 4593,
      "ĠOrgan": 4594,
      "eff": 4595,
      "gra": 4596,
      "atically": 4597,
      "Ġsav": 4598,
      "olute": 4599,
      "raw": 4600,
      "illing": 4601,
      "Ġperfect": 4602,
      "Ġsave": 4603,
      "Ġremember": 4604,
      "Ġresulting": 4605,
      "Ġexplain": 4606,
      "TM": 4607,
      "part": 4608,
      "onic": 4609,
      "orial": 4610,
      "Ġbattle": 4611,
      "amental": 4612,
      "ĠPost": 4613,
      "ĠNav": 4614,
      "Ġleaves": 4615,
      "Ġmeat": 4616,
      "ĠIsland": 4617,
      "Ġesc": 4618,
      "ĠImp": 4619,
      "ĠBudd": 4620,
      "ĠFood": 4621,
      "Ġneu": 4622,
      "ĠLake": 4623,
      "ĠKore": 4624,
      "Ġfinally": 4625,
      "Ġtemperatures": 4626,
      "Ġfiles": 4627,
      "Ġfrequently": 4628,
      "ĠCharles": 4629,
      "Ġdrinking": 4630,
      "icial": 4631,
      "rolet": 4632,
      "ocal": 4633,
      "Ġkept": 4634,
      "Ġfif": 4635,
      "romos": 4636,
      "ĠFoundation": 4637,
      "Ġtrou": 4638,
      "Ġnorthern": 4639,
      "utive": 4640,
      "iring": 4641,
      "Ġshowing": 4642,
      "Ġdirector": 4643,
      "ĠRussian": 4644,
      "ĠFlorida": 4645,
      "As": 4646,
      "ded": 4647,
      "uing": 4648,
      "Ġfib": 4649,
      "olved": 4650,
      "Ġelim": 4651,
      "Ġdiscussion": 4652,
      "do": 4653,
      "Ġ<": 4654,
      "Ġnav": 4655,
      "ching": 4656,
      "ĠEconom": 4657,
      "rick": 4658,
      "Ġexpert": 4659,
      "Ġprocessing": 4660,
      "Ġterrit": 4661,
      "Ġchallenges": 4662,
      "Ġgarden": 4663,
      "well": 4664,
      "iform": 4665,
      "Ġunit": 4666,
      "ĠConf": 4667,
      "Ġcreation": 4668,
      "Ġbackground": 4669,
      "Ġrisks": 4670,
      "Ġbrother": 4671,
      "Ġdescribe": 4672,
      "Ġinitial": 4673,
      "gl": 4674,
      "rum": 4675,
      "Ġcand": 4676,
      "Ġforced": 4677,
      "Ġexcess": 4678,
      "ĠFederal": 4679,
      "Ġ90": 4680,
      "Ġmarine": 4681,
      "ĠGreek": 4682,
      "ĠMexico": 4683,
      "Ġfine": 4684,
      "uses": 4685,
      "Ġspent": 4686,
      "ĠReview": 4687,
      "Ġclassroom": 4688,
      "Ġoperation": 4689,
      "iatric": 4690,
      "Ġcere": 4691,
      "ams": 4692,
      "ĠPri": 4693,
      "Ġroof": 4694,
      "ception": 4695,
      "Ġ1998": 4696,
      "Ġadvice": 4697,
      "Ġchanging": 4698,
      "Ġperformed": 4699,
      "Ġletters": 4700,
      "American": 4701,
      "Ġban": 4702,
      "Ġmamm": 4703,
      "icit": 4704,
      "Ġreality": 4705,
      "Ġlatter": 4706,
      "ĠAN": 4707,
      "ĠBu": 4708,
      "ĠWild": 4709,
      "Ġheard": 4710,
      "Ġdecided": 4711,
      "Ġsubm": 4712,
      "risis": 4713,
      "ĠCentral": 4714,
      "Ġpromote": 4715,
      "Ġfilm": 4716,
      "Ġmorning": 4717,
      "Ġfriend": 4718,
      "ĠLouis": 4719,
      "ĠRobert": 4720,
      "ĠCatholic": 4721,
      "cers": 4722,
      "cest": 4723,
      "ĠBoth": 4724,
      "ĠFurther": 4725,
      "ĠRights": 4726,
      "inson": 4727,
      "what": 4728,
      "ĠJapanese": 4729,
      "Ġcollabor": 4730,
      "Ġvictim": 4731,
      "Ġphenomen": 4732,
      "36": 4733,
      "yn": 4734,
      "ini": 4735,
      "Ġpi": 4736,
      "Ġbow": 4737,
      "Ġhospital": 4738,
      "Ġrenew": 4739,
      "omic": 4740,
      "Ġsugar": 4741,
      "ĠJud": 4742,
      "obe": 4743,
      "Ġcausing": 4744,
      "Ġauthority": 4745,
      "Ġamounts": 4746,
      "Ġreplace": 4747,
      "Ġviolence": 4748,
      "Ġmonitoring": 4749,
      "Ġdivided": 4750,
      "ellectual": 4751,
      "aur": 4752,
      "uit": 4753,
      "vis": 4754,
      "west": 4755,
      "Ġwife": 4756,
      "Ġdoll": 4757,
      "Ġgar": 4758,
      "othes": 4759,
      "ĠMiddle": 4760,
      "Ġconvers": 4761,
      "ĠNote": 4762,
      "ĠThose": 4763,
      "Ġlargely": 4764,
      "Ġsaying": 4765,
      "Ġconnect": 4766,
      "Ġbalance": 4767,
      "Ġprinciples": 4768,
      "Ġtour": 4769,
      "Ġfig": 4770,
      "ingly": 4771,
      "Ġmale": 4772,
      "Ġju": 4773,
      "Ġgets": 4774,
      "Ġexperts": 4775,
      "Ġfinding": 4776,
      "ĠIII": 4777,
      "Ġpreviously": 4778,
      "ĠSmith": 4779,
      "Ġinstitutions": 4780,
      "EL": 4781,
      "aj": 4782,
      "ĠÃ": 4783,
      "oral": 4784,
      "Ġmel": 4785,
      "iling": 4786,
      "Ġstore": 4787,
      "Ġconstitution": 4788,
      "Ġcontem": 4789,
      "Ġnewsp": 4790,
      "ĠForce": 4791,
      "Ġimproved": 4792,
      "Ġsuggested": 4793,
      "Ġregarding": 4794,
      "Ġdiagnosis": 4795,
      "Ġprices": 4796,
      "atabase": 4797,
      "oice": 4798,
      "Ġpip": 4799,
      "ĠMark": 4800,
      "ibl": 4801,
      "ĠYet": 4802,
      "Ġmetal": 4803,
      "Ġcompleted": 4804,
      "Ġaircraft": 4805,
      "Ġsen": 4806,
      "Ġsample": 4807,
      "Ġeast": 4808,
      "ĠTreat": 4809,
      "ĠPers": 4810,
      "umn": 4811,
      "ĠDan": 4812,
      "Ġshut": 4813,
      "ĠSte": 4814,
      "Ġjur": 4815,
      "Ġoutput": 4816,
      "....": 4817,
      "Ġprepared": 4818,
      "ĠHenry": 4819,
      "Ġhur": 4820,
      "ilit": 4821,
      "ĠST": 4822,
      "Ġonto": 4823,
      "ĠGroup": 4824,
      "achuse": 4825,
      "cyclop": 4826,
      "Ġfamous": 4827,
      "Ġleader": 4828,
      "Ġelement": 4829,
      "Ġtrend": 4830,
      "Ġbiological": 4831,
      "Ġdegrees": 4832,
      "Ġchallenge": 4833,
      "ĠFranc": 4834,
      "Ġhabitat": 4835,
      "If": 4836,
      "ih": 4837,
      "zy": 4838,
      "Ġ>": 4839,
      "isation": 4840,
      "ĠRad": 4841,
      "ributed": 4842,
      "ĠCarol": 4843,
      "Ġrequirements": 4844,
      "idelines": 4845,
      "Ġsymbol": 4846,
      "pat": 4847,
      "tts": 4848,
      "Ġtherm": 4849,
      "ĠCap": 4850,
      "Ġstorm": 4851,
      "ĠDist": 4852,
      "Ġhear": 4853,
      "ĠOp": 4854,
      "Ġperman": 4855,
      "Ġcontinues": 4856,
      "Ġcombined": 4857,
      "ĠSecond": 4858,
      "Ġemergency": 4859,
      "ĠOffice": 4860,
      "achusetts": 4861,
      "Ġmouth": 4862,
      "ĠEmp": 4863,
      "Ġnotes": 4864,
      "ishing": 4865,
      "Ġmostly": 4866,
      "ĠConn": 4867,
      "Ġstarting": 4868,
      "Ġdefinition": 4869,
      "RO": 4870,
      "inations": 4871,
      "itage": 4872,
      "Ġinternal": 4873,
      "astern": 4874,
      "Ġhour": 4875,
      "ado": 4876,
      "ĠHel": 4877,
      "ĠUK": 4878,
      "Ġincome": 4879,
      "Ġaccur": 4880,
      "Ġjustice": 4881,
      "rolog": 4882,
      "Ġtrials": 4883,
      "Ġwanted": 4884,
      "Ġsouthern": 4885,
      "ĠThomas": 4886,
      "nel": 4887,
      "Ġcamer": 4888,
      "ĠSuch": 4889,
      "ulating": 4890,
      "ĠMill": 4891,
      "Ġdiss": 4892,
      "Ġclim": 4893,
      "Ġrecorded": 4894,
      "Ġoptions": 4895,
      "Ġsubstant": 4896,
      "Ġpollution": 4897,
      "Ġcovered": 4898,
      "Ġhus": 4899,
      "Ġappeared": 4900,
      "Ġprefer": 4901,
      "Ġdiscover": 4902,
      "Ġdiscrim": 4903,
      "ructure": 4904,
      "Ġgovernments": 4905,
      "Ġhappen": 4906,
      "Ġinjury": 4907,
      "76": 4908,
      "Ġsin": 4909,
      "Ġded": 4910,
      "state": 4911,
      "ĠSum": 4912,
      "urance": 4913,
      "ĠWind": 4914,
      "erences": 4915,
      "asses": 4916,
      "Ġ1995": 4917,
      "ĠCommittee": 4918,
      "Ġerror": 4919,
      "pective": 4920,
      "Ġsignificantly": 4921,
      "Ġstrategies": 4922,
      "Ġadvantage": 4923,
      "Ã¶": 4924,
      "Ġband": 4925,
      "Ġinput": 4926,
      "Ġmos": 4927,
      "Ġdro": 4928,
      "lements": 4929,
      "Ġstyle": 4930,
      "unk": 4931,
      "Ġcharacteristics": 4932,
      "ĠPeace": 4933,
      "ĠHistor": 4934,
      "kin": 4935,
      "mark": 4936,
      "Ġwestern": 4937,
      "Ġpaid": 4938,
      "Ġinh": 4939,
      "Ġsufficient": 4940,
      "acific": 4941,
      "ĠLike": 4942,
      "Ġkil": 4943,
      "Ġreligion": 4944,
      "Ġutil": 4945,
      "Ġmaximum": 4946,
      "Ġacademic": 4947,
      "ux": 4948,
      "Ġclos": 4949,
      "Ġyourself": 4950,
      "Ġviews": 4951,
      "Ġcircum": 4952,
      "Ġarchitect": 4953,
      "CS": 4954,
      "bi": 4955,
      "igen": 4956,
      "Ġconvent": 4957,
      "elled": 4958,
      "Ġcomprehens": 4959,
      "Ġ35": 4960,
      "Ġ45": 4961,
      "Ġtechnique": 4962,
      "Ġoperating": 4963,
      "Ġinvolves": 4964,
      "Ġparticipants": 4965,
      "Ġrecommended": 4966,
      "49": 4967,
      "Ġpil": 4968,
      "Ġhop": 4969,
      "ĠPub": 4970,
      "ĠPsych": 4971,
      "Ġappoint": 4972,
      "Ġoffered": 4973,
      "Ġeasier": 4974,
      "39": 4975,
      "AP": 4976,
      "Ġ189": 4977,
      "Ġsupported": 4978,
      "Ġbuildings": 4979,
      "Ġrecognized": 4980,
      "Ġtitle": 4981,
      "uz": 4982,
      "Ã¡": 4983,
      "Ġfrag": 4984,
      "ari": 4985,
      "roph": 4986,
      "Ġthick": 4987,
      "ĠBet": 4988,
      "ĠGal": 4989,
      "ossible": 4990,
      "Ġdistrict": 4991,
      "Ġdiscovery": 4992,
      "Ġinterests": 4993,
      "Ġauthorities": 4994,
      "Ġfundamental": 4995,
      "Ġdocuments": 4996,
      "Ġindicate": 4997,
      "aughter": 4998,
      "hetic": 4999,
      "Ġfarmers": 5000,
      "ĠVietnam": 5001,
      "ĠMassachusetts": 5002,
      "ĠChevrolet": 5003,
      "100": 5004,
      "37": 5005,
      "inet": 5006,
      "Ġfal": 5007,
      "Ġintended": 5008,
      "Ġunits": 5009,
      "Ġgrand": 5010,
      "ortunately": 5011,
      "Ġcycle": 5012,
      "Ġrelationships": 5013,
      "ĠRussia": 5014,
      "Ġslightly": 5015,
      "ville": 5016,
      "heim": 5017,
      "Ġple": 5018,
      "uration": 5019,
      "ulum": 5020,
      "ĠBible": 5021,
      "ĠLast": 5022,
      "Ġshot": 5023,
      "ears": 5024,
      "Ġarms": 5025,
      "Ġcenturies": 5026,
      "Ġreform": 5027,
      "Ġjobs": 5028,
      "ĠUsing": 5029,
      "care": 5030,
      "vision": 5031,
      "Ġiron": 5032,
      "ented": 5033,
      "ĠDise": 5034,
      "osen": 5035,
      "ĠNatural": 5036,
      "ĠOld": 5037,
      "ago": 5038,
      "ague": 5039,
      "Ġincorpor": 5040,
      "Ġsyndrome": 5041,
      "ĠAny": 5042,
      "ĠArmy": 5043,
      "Ġ1997": 5044,
      "Ġcorn": 5045,
      "pidem": 5046,
      "Ġwildlife": 5047,
      "Ġsequence": 5048,
      "works": 5049,
      "Ġgalax": 5050,
      "crib": 5051,
      "mun": 5052,
      "Ġsnow": 5053,
      "Ġwww": 5054,
      "alle": 5055,
      "Ġexcell": 5056,
      "aker": 5057,
      "Ġobvious": 5058,
      "Ġscen": 5059,
      "Ġcharge": 5060,
      "Ġguide": 5061,
      "going": 5062,
      "OT": 5063,
      "ses": 5064,
      "Ġtiny": 5065,
      "ania": 5066,
      "ĠBas": 5067,
      "ĠWell": 5068,
      "ĠStand": 5069,
      "ĠTherefore": 5070,
      "Ġconcerned": 5071,
      "ĠCorps": 5072,
      "Ġwet": 5073,
      "Ġpun": 5074,
      "Ġburn": 5075,
      "Ġfly": 5076,
      "Ġvast": 5077,
      "place": 5078,
      "Ġinfections": 5079,
      "Ġgoals": 5080,
      "Ġconsists": 5081,
      "Ġdecisions": 5082,
      "Ġtechnical": 5083,
      "espite": 5084,
      "Ġclaims": 5085,
      "Ġsubstance": 5086,
      "Ġrevolution": 5087,
      "Ġconflict": 5088,
      "48": 5089,
      "AD": 5090,
      "ĠColumb": 5091,
      "Ġcollege": 5092,
      "Ġaspects": 5093,
      "Ġdestroyed": 5094,
      "osystem": 5095,
      "kins": 5096,
      "rat": 5097,
      "word": 5098,
      "Ġtun": 5099,
      "Ġbond": 5100,
      "iful": 5101,
      "ĠLatin": 5102,
      "Ġschem": 5103,
      "Ġextent": 5104,
      "Ġreducing": 5105,
      "Ġallowing": 5106,
      "Ġapproaches": 5107,
      "Ġdoctors": 5108,
      "Ġfailed": 5109,
      "board": 5110,
      "Ġstraight": 5111,
      "nic": 5112,
      "ta": 5113,
      "reed": 5114,
      "Ġbright": 5115,
      "Ġfle": 5116,
      "Ġdial": 5117,
      "Ġstored": 5118,
      "ĠMo": 5119,
      "umin": 5120,
      "Ġcontaining": 5121,
      "Ġmanner": 5122,
      "ĠVict": 5123,
      "enses": 5124,
      "Ġroot": 5125,
      "Ġtested": 5126,
      "Ġready": 5127,
      "Ġequival": 5128,
      "Ġabsolute": 5129,
      "Ġconcepts": 5130,
      "bal": 5131,
      "ball": 5132,
      "kes": 5133,
      "Ġped": 5134,
      "Ġitems": 5135,
      "ĠHome": 5136,
      "aste": 5137,
      "Ġdisapp": 5138,
      "uality": 5139,
      "Ġcommit": 5140,
      "Ġrecy": 5141,
      "Ġremove": 5142,
      "Ġexplore": 5143,
      "ĠAtt": 5144,
      "Ġreduction": 5145,
      "ĠProfessor": 5146,
      "Ġeggs": 5147,
      "Ġbegins": 5148,
      "ĠAcademy": 5149,
      "ares": 5150,
      "ka": 5151,
      "Ġpick": 5152,
      "Ġpump": 5153,
      "ĠBen": 5154,
      "Ġ1980": 5155,
      "Ġimpacts": 5156,
      "Ġfunding": 5157,
      "Ġprimarily": 5158,
      "ĠMichael": 5159,
      "Ġadjust": 5160,
      "Ġsector": 5161,
      "ĠAD": 5162,
      "cel": 5163,
      "change": 5164,
      "Ġrub": 5165,
      "Ġspot": 5166,
      "Ġwealth": 5167,
      "Ġgraph": 5168,
      "Ġ1993": 5169,
      "Ġgoods": 5170,
      "Ġcontinuous": 5171,
      "Ġclasses": 5172,
      "Ġmeasured": 5173,
      "Ġlooks": 5174,
      "Ġhundreds": 5175,
      "Ġelectrical": 5176,
      "LE": 5177,
      "tle": 5178,
      "Ġsong": 5179,
      "Ġpestic": 5180,
      "ĠBa": 5181,
      "Ġsetting": 5182,
      "Ġorganisms": 5183,
      "iveness": 5184,
      "Ġfacilities": 5185,
      "Ġvolume": 5186,
      "Ġprofession": 5187,
      "ĠSecurity": 5188,
      "Ġexactly": 5189,
      "Ġpieces": 5190,
      "Ġgod": 5191,
      "ota": 5192,
      "Ġstation": 5193,
      "Ġyellow": 5194,
      "ective": 5195,
      "Ġconsult": 5196,
      "Ġsurpris": 5197,
      "Ġowners": 5198,
      "ĠColor": 5199,
      "Ġmarriage": 5200,
      "Ġtopics": 5201,
      "Ġexistence": 5202,
      "Ġdomestic": 5203,
      "Ġexperienced": 5204,
      "55": 5205,
      "enced": 5206,
      "ita": 5207,
      "iled": 5208,
      "ivation": 5209,
      "Ġintellectual": 5210,
      "Ġotherwise": 5211,
      "âĢĿ.": 5212,
      "Ġtraffic": 5213,
      "Ġformation": 5214,
      "example": 5215,
      "clusion": 5216,
      "Ġcomponents": 5217,
      "sembly": 5218,
      "rich": 5219,
      "Ġsalt": 5220,
      "Ġdie": 5221,
      "Ġteach": 5222,
      "Ġtrad": 5223,
      "Ġdistingu": 5224,
      "Ġdescription": 5225,
      "ĠReport": 5226,
      "Ġsustainable": 5227,
      "ocratic": 5228,
      "Ġcontrolled": 5229,
      "chers": 5230,
      "Ġnit": 5231,
      "otic": 5232,
      "ĠPower": 5233,
      "ĠDespite": 5234,
      "ache": 5235,
      "Ġnotice": 5236,
      "Ġkm": 5237,
      "ĠStat": 5238,
      "Ġ300": 5239,
      "Ġtrig": 5240,
      "Ġexpensive": 5241,
      "Ġidentity": 5242,
      "Ġconnected": 5243,
      "Ġpregnancy": 5244,
      "Ġrapidly": 5245,
      "89": 5246,
      "Ġbrief": 5247,
      "rot": 5248,
      "Ġgun": 5249,
      "ĠMP": 5250,
      "ĠPeter": 5251,
      "ifies": 5252,
      "Ġhaz": 5253,
      "Ġknew": 5254,
      "Ġbuy": 5255,
      "Ġeffectively": 5256,
      "Ġsky": 5257,
      "Ġhappens": 5258,
      "Ġcritic": 5259,
      "Ġresponsibility": 5260,
      "Ġoriginally": 5261,
      "Ġlaboratory": 5262,
      "Ġwalls": 5263,
      "Ġvillage": 5264,
      "Ġmanufacture": 5265,
      "itud": 5266,
      "Ġfold": 5267,
      "ancing": 5268,
      "Ġhorm": 5269,
      "ĠTimes": 5270,
      "Ġnarr": 5271,
      "ada": 5272,
      "Ġparties": 5273,
      "Ġelectronic": 5274,
      "standing": 5275,
      "Ġcapable": 5276,
      "Ġtopic": 5277,
      "Ġengineering": 5278,
      "Ġportion": 5279,
      "DF": 5280,
      "ION": 5281,
      "vity": 5282,
      "Ġtask": 5283,
      "Ġpure": 5284,
      "Ġborder": 5285,
      "ĠHol": 5286,
      "ĠFam": 5287,
      "Ġraised": 5288,
      "Ġspecifically": 5289,
      "Ġtrust": 5290,
      "Ġadvanced": 5291,
      "Ġissued": 5292,
      "Ġbird": 5293,
      "Ġaccepted": 5294,
      "Ġdouble": 5295,
      "What": 5296,
      "ST": 5297,
      "gment": 5298,
      "pre": 5299,
      "rating": 5300,
      "oln": 5301,
      "Ġancest": 5302,
      "ĠHy": 5303,
      "resents": 5304,
      "osite": 5305,
      "Ġintellig": 5306,
      "ĠOnly": 5307,
      "idden": 5308,
      "Ġmassive": 5309,
      "ĠCompany": 5310,
      "Ġdangerous": 5311,
      "Ġdynam": 5312,
      "sen": 5313,
      "Ġnarrow": 5314,
      "ĠSal": 5315,
      "heric": 5316,
      "Ġformal": 5317,
      "Ġexplan": 5318,
      "ĠExp": 5319,
      "Ġtried": 5320,
      "Ġpromot": 5321,
      "Ġconcern": 5322,
      "Ġliquid": 5323,
      "Ġsides": 5324,
      "Ġhit": 5325,
      "ĠTHE": 5326,
      "ĠThrough": 5327,
      "Ġsynt": 5328,
      "Ġorganized": 5329,
      "Ġadvoc": 5330,
      "Ġproperly": 5331,
      "Ġrelevant": 5332,
      "ĠÂ©": 5333,
      "Ġneighbor": 5334,
      "ĠEmpire": 5335,
      "46": 5336,
      "An": 5337,
      "greg": 5338,
      "normal": 5339,
      "wood": 5340,
      "inction": 5341,
      "Ġod": 5342,
      "atform": 5343,
      "Ġcrisis": 5344,
      "Ġfaster": 5345,
      "Ġnine": 5346,
      "stood": 5347,
      "Ġfort": 5348,
      "aks": 5349,
      "Ġjoint": 5350,
      "Ġapparent": 5351,
      "Ġtwenty": 5352,
      "Ġadvance": 5353,
      "rison": 5354,
      "ifying": 5355,
      "Ġcollected": 5356,
      "ĠStudies": 5357,
      "Ġtowns": 5358,
      "Ġprocedures": 5359,
      "Ġexperiments": 5360,
      "Ġmoist": 5361,
      "Ġrepeated": 5362,
      "Al": 5363,
      "down": 5364,
      "Ġfelt": 5365,
      "iced": 5366,
      "Ġdust": 5367,
      "celer": 5368,
      "Ġstro": 5369,
      "ĠMont": 5370,
      "ĠDiv": 5371,
      "ĠFre": 5372,
      "ĠRem": 5373,
      "Ġspl": 5374,
      "Ġunless": 5375,
      "Ġera": 5376,
      "Ġprinciple": 5377,
      "Ġmembrane": 5378,
      "Ġdespite": 5379,
      "500": 5380,
      "inity": 5381,
      "eria": 5382,
      "Ġnan": 5383,
      "ĠJose": 5384,
      "ework": 5385,
      "inding": 5386,
      "Ġemployment": 5387,
      "Ġindependence": 5388,
      "Ġassessment": 5389,
      "85": 5390,
      "SA": 5391,
      "lers": 5392,
      "rant": 5393,
      "ya": 5394,
      "ĠSou": 5395,
      "abil": 5396,
      "ĠNat": 5397,
      "Ġrough": 5398,
      "oster": 5399,
      "agues": 5400,
      "Ġrelation": 5401,
      "Ġphase": 5402,
      "Ġpaint": 5403,
      "unteers": 5404,
      "Ġtroops": 5405,
      "iated": 5406,
      "Ġsend": 5407,
      "Ġfell": 5408,
      "Ġtow": 5409,
      "Ġagency": 5410,
      "Ġrepresents": 5411,
      "Ġphone": 5412,
      "Ġparticles": 5413,
      "Ġorganic": 5414,
      "Ġplayed": 5415,
      "Ġdetailed": 5416,
      "Ġefficiency": 5417,
      "Ġadopted": 5418,
      "inf": 5419,
      "Ġbones": 5420,
      "irty": 5421,
      "ĠBrown": 5422,
      "ĠHall": 5423,
      "oston": 5424,
      "ĠStep": 5425,
      "Ġresulted": 5426,
      "Ġcrew": 5427,
      "Ġmillions": 5428,
      "Ġcomputers": 5429,
      "Ġfamiliar": 5430,
      "Ġpurposes": 5431,
      "Ġselected": 5432,
      "Ġprocedure": 5433,
      "icians": 5434,
      "Ġliver": 5435,
      "ĠPacific": 5436,
      "osal": 5437,
      "Ġrural": 5438,
      "Ġleaving": 5439,
      "Ġallerg": 5440,
      "anges": 5441,
      "anged": 5442,
      "ieties": 5443,
      "Ġlooked": 5444,
      "Ġlimits": 5445,
      "Ġmuscles": 5446,
      "Ġdiscussed": 5447,
      "Ġsubjects": 5448,
      "Ġreplaced": 5449,
      "Ġconcerns": 5450,
      "Ġfrequency": 5451,
      "Ġlatest": 5452,
      "tra": 5453,
      "Ġcore": 5454,
      "alian": 5455,
      "alination": 5456,
      "Ġfirm": 5457,
      "Ġdut": 5458,
      "Ġgall": 5459,
      "Ġstated": 5460,
      "ĠWhere": 5461,
      "ĠLong": 5462,
      "Ġattacks": 5463,
      "rows": 5464,
      "Ġgreatest": 5465,
      "Ġeastern": 5466,
      "incoln": 5467,
      "Ġhousehold": 5468,
      "Ġastron": 5469,
      "Ġencourage": 5470,
      "Ġsurrounding": 5471,
      "Ġenemy": 5472,
      "'m": 5473,
      "last": 5474,
      "zen": 5475,
      "Ġtail": 5476,
      "Ġbed": 5477,
      "leton": 5478,
      "ĠClick": 5479,
      "âĢľ": 5480,
      "Ġexternal": 5481,
      "ĠDisc": 5482,
      "ĠFigure": 5483,
      "Ġfacts": 5484,
      "Ġminimum": 5485,
      "Ġpractical": 5486,
      "which": 5487,
      "Ġnutrition": 5488,
      "Ġmolecules": 5489,
      "Ġcredit": 5490,
      "Ġhusband": 5491,
      "IA": 5492,
      "Ġgames": 5493,
      "ĠDi": 5494,
      "Ġhem": 5495,
      "ĠEnd": 5496,
      "active": 5497,
      "Ġformat": 5498,
      "hips": 5499,
      "Ġelected": 5500,
      "Ġ1970": 5501,
      "Ġlayers": 5502,
      "Ġphysician": 5503,
      "Ġagricultural": 5504,
      "HA": 5505,
      "eor": 5506,
      "war": 5507,
      "inter": 5508,
      "arp": 5509,
      "Ġreject": 5510,
      "Ġlik": 5511,
      "etics": 5512,
      "Ġprohib": 5513,
      "Ġcomment": 5514,
      "Ġdiscipl": 5515,
      "cium": 5516,
      "Ġacts": 5517,
      "ĠWho": 5518,
      "Ġsubsequ": 5519,
      "Ġcalls": 5520,
      "Ġshel": 5521,
      "Ġpolitics": 5522,
      "Ġperiods": 5523,
      "EM": 5524,
      "ii": 5525,
      "rust": 5526,
      "Ġcart": 5527,
      "ĠSa": 5528,
      "osph": 5529,
      "ĠNature": 5530,
      "ĠGood": 5531,
      "agers": 5532,
      "apes": 5533,
      "Ġprepar": 5534,
      "Ġflat": 5535,
      "Ġpossibility": 5536,
      "ipped": 5537,
      "Ġkinds": 5538,
      "ictionary": 5539,
      "Ġthousand": 5540,
      "Ġsediment": 5541,
      "ĠBuddh": 5542,
      "47": 5543,
      "Ġdatabase": 5544,
      "ĠTer": 5545,
      "throp": 5546,
      "ĠDar": 5547,
      "ĠFree": 5548,
      "Ġcloth": 5549,
      "Ġdepth": 5550,
      "Ġmovements": 5551,
      "ĠCanadian": 5552,
      "stein": 5553,
      "Ġhouses": 5554,
      "Ġfossil": 5555,
      "cyclopedia": 5556,
      "88": 5557,
      "inating": 5558,
      "Ġcards": 5559,
      "lets": 5560,
      "olf": 5561,
      "ĠBi": 5562,
      "atever": 5563,
      "Ġadding": 5564,
      "ĠArctic": 5565,
      "Ġprotected": 5566,
      "Ġbrown": 5567,
      "Ġhappened": 5568,
      "Ġincreasingly": 5569,
      "Ġprecise": 5570,
      "Ġmentioned": 5571,
      "cher": 5572,
      "Ġfing": 5573,
      "anish": 5574,
      "Ġinher": 5575,
      "idity": 5576,
      "ĠPlease": 5577,
      "ĠBir": 5578,
      "ĠLab": 5579,
      "ĠLibrary": 5580,
      "ĠLincoln": 5581,
      "ĠOx": 5582,
      "Ġadequ": 5583,
      "ometimes": 5584,
      "Ġpossess": 5585,
      "ercury": 5586,
      "Ġhyper": 5587,
      "allel": 5588,
      "HO": 5589,
      "liam": 5590,
      "ĠAp": 5591,
      "Ġvul": 5592,
      "Ġresist": 5593,
      "Ġarts": 5594,
      "Ġpoet": 5595,
      "Ġacceler": 5596,
      "Ġattached": 5597,
      "Ġdecline": 5598,
      "Ġtransform": 5599,
      "Ġcertainly": 5600,
      "Ġlanguages": 5601,
      "ognitive": 5602,
      "Ġsentence": 5603,
      "Ġjoined": 5604,
      "ĠInstead": 5605,
      "Ġnormally": 5606,
      ".'": 5607,
      "31": 5608,
      "RC": 5609,
      "ey": 5610,
      "inent": 5611,
      "stream": 5612,
      "ĠSign": 5613,
      "Ġselection": 5614,
      "ureau": 5615,
      "ogue": 5616,
      "Ġunlike": 5617,
      "ropical": 5618,
      "Ġassistance": 5619,
      "Ġlandsc": 5620,
      "Ġlaunch": 5621,
      "Ġanswers": 5622,
      "Ġaffects": 5623,
      "ĠPolit": 5624,
      ":||": 5625,
      "DP": 5626,
      "long": 5627,
      "Ġ||": 5628,
      "ĠProp": 5629,
      "Ġexpressed": 5630,
      "Ġsubs": 5631,
      "Ġexplained": 5632,
      "ĠAdminist": 5633,
      "ĠExper": 5634,
      "Ġargument": 5635,
      "Ġsuperior": 5636,
      "Ġnucle": 5637,
      "ĠGlobal": 5638,
      "Ġcomponent": 5639,
      "ca": 5640,
      "Ġfit": 5641,
      "ĠAst": 5642,
      "ĠBook": 5643,
      "ĠFort": 5644,
      "Ġabuse": 5645,
      "Ġteeth": 5646,
      "Ġ36": 5647,
      "Ġphr": 5648,
      "Ġproducing": 5649,
      "Ġinstall": 5650,
      "Ġsignal": 5651,
      "Ġtypical": 5652,
      "Ġmainly": 5653,
      "Ġgreatly": 5654,
      "Ġcontrols": 5655,
      "Ġprevention": 5656,
      "Ġerr": 5657,
      "Ġclosely": 5658,
      "Ġsurvival": 5659,
      "Ġframe": 5660,
      "Ġwarming": 5661,
      "Ġpregnant": 5662,
      "Ġwonder": 5663,
      "Ġkidney": 5664,
      "col": 5665,
      "lar": 5666,
      "Ġfol": 5667,
      "vert": 5668,
      "ĠBur": 5669,
      "ĠBoston": 5670,
      "ighter": 5671,
      "ocation": 5672,
      "Ġplastic": 5673,
      "Ġuniverse": 5674,
      "ava": 5675,
      "Ġimpossible": 5676,
      "iodiversity": 5677,
      "Ġmulti": 5678,
      "Ġlaun": 5679,
      "Ġconcentration": 5680,
      "Ġnutri": 5681,
      "Ġopinion": 5682,
      "reci": 5683,
      "Ġmist": 5684,
      "icon": 5685,
      "ĠIll": 5686,
      "ĠNor": 5687,
      "Ġshared": 5688,
      "Ġweap": 5689,
      "Ġrecip": 5690,
      "Ġtwice": 5691,
      "ĠAnn": 5692,
      "Ġsupplies": 5693,
      "Ġrequest": 5694,
      "rapy": 5695,
      "Ġlateral": 5696,
      "Ġpotentially": 5697,
      "ĠSciences": 5698,
      "ĠControl": 5699,
      "Ġmechanism": 5700,
      "ĠFrank": 5701,
      "ING": 5702,
      "ras": 5703,
      "Ġpray": 5704,
      "Ġthin": 5705,
      "Ġlies": 5706,
      "ĠPop": 5707,
      "Ġheight": 5708,
      "osm": 5709,
      "emia": 5710,
      "quit": 5711,
      "udget": 5712,
      "Ġplatform": 5713,
      "Ġmode": 5714,
      "Ġdepending": 5715,
      "Ġleads": 5716,
      "bing": 5717,
      "ki": 5718,
      "heast": 5719,
      "inant": 5720,
      "Ġtoler": 5721,
      "Ġlas": 5722,
      "Ġisland": 5723,
      "ĠNations": 5724,
      "Ġfloor": 5725,
      "Ġautism": 5726,
      "Ġminim": 5727,
      "Ġexplains": 5728,
      "Ġkeeping": 5729,
      "Ġclaimed": 5730,
      "Ġurban": 5731,
      "Ġpermanent": 5732,
      "CD": 5733,
      "avery": 5734,
      "zil": 5735,
      "itter": 5736,
      "ĠTime": 5737,
      "ston": 5738,
      "ĠAS": 5739,
      "ĠCa": 5740,
      "oto": 5741,
      "Ġ185": 5742,
      "Ġinstruction": 5743,
      "Ġworldwide": 5744,
      "nedy": 5745,
      "ĠAmong": 5746,
      "Ġdebate": 5747,
      "Ġecosystem": 5748,
      "ĠSpecial": 5749,
      "Ġmuseum": 5750,
      "ĠAri": 5751,
      "ĠMac": 5752,
      "ĠGrand": 5753,
      "ĠVit": 5754,
      "Ġdecade": 5755,
      "Ġappearance": 5756,
      "Ġsensitive": 5757,
      "Ġimmediate": 5758,
      "Ġprisoners": 5759,
      "05": 5760,
      "34": 5761,
      "ooth": 5762,
      "rey": 5763,
      "Ġsounds": 5764,
      "Ġindu": 5765,
      "Ġgrown": 5766,
      "Ġremaining": 5767,
      "Ġ1992": 5768,
      "ĠSea": 5769,
      "Ġtreatments": 5770,
      "Ġlands": 5771,
      "ĠLeg": 5772,
      "aturally": 5773,
      "Ġinsects": 5774,
      "Ġinflamm": 5775,
      "Ġdoubt": 5776,
      "heimer": 5777,
      "LL": 5778,
      "een": 5779,
      "Ġax": 5780,
      "Ġsick": 5781,
      "isters": 5782,
      "orph": 5783,
      "ĠTit": 5784,
      "ĠSaf": 5785,
      "ĠLu": 5786,
      "ĠKh": 5787,
      "Ġregist": 5788,
      "Ġhelping": 5789,
      "Ġfounded": 5790,
      "Ġdefic": 5791,
      "Ġ1994": 5792,
      "Ġgenerate": 5793,
      "Ġcareer": 5794,
      "Ġflowers": 5795,
      "Ġgirls": 5796,
      "ĠColumbia": 5797,
      "liament": 5798,
      "cript": 5799,
      "ione": 5800,
      "ĠBre": 5801,
      "ĠDel": 5802,
      "acher": 5803,
      "Ġchann": 5804,
      "ansion": 5805,
      "riculum": 5806,
      "Ġagencies": 5807,
      "Ġsurf": 5808,
      "Ġextended": 5809,
      "ĠClass": 5810,
      "Ġopened": 5811,
      "ĠEarly": 5812,
      "Ġexamine": 5813,
      "Ġnegot": 5814,
      "Ġphotograph": 5815,
      "ĠKennedy": 5816,
      "ĠCarolina": 5817,
      "eper": 5818,
      "ny": 5819,
      "rine": 5820,
      "with": 5821,
      "Ġreven": 5822,
      "Ġepidem": 5823,
      "ĠBot": 5824,
      "Ġsuc": 5825,
      "ĠGet": 5826,
      "ĠOut": 5827,
      "alls": 5828,
      "Ġperce": 5829,
      "Ġcolors": 5830,
      "Ġoccasion": 5831,
      "cling": 5832,
      "ĠBefore": 5833,
      "ĠSecret": 5834,
      "Ġobservations": 5835,
      "Ġtransmission": 5836,
      "Ġobtained": 5837,
      "Ġvehicles": 5838,
      "ĠVictor": 5839,
      ")||": 5840,
      "Ġpull": 5841,
      "Ġinner": 5842,
      "ĠIr": 5843,
      "Ġlect": 5844,
      "Ġclosed": 5845,
      "Ġinfected": 5846,
      "Ġrecovery": 5847,
      "Ġsupposed": 5848,
      "Ġextensive": 5849,
      "ĠExpl": 5850,
      "Ġexperiences": 5851,
      "Ġcouple": 5852,
      "Ġcomprehensive": 5853,
      "iate": 5854,
      "uable": 5855,
      "ĠExt": 5856,
      "ĠOs": 5857,
      "Ġprem": 5858,
      "oven": 5859,
      "Ġbroken": 5860,
      "Ġmeasurements": 5861,
      "Ġscholars": 5862,
      "ĠFrancisc": 5863,
      "field": 5864,
      "hma": 5865,
      "olve": 5866,
      "ĠCult": 5867,
      "ĠBC": 5868,
      "abled": 5869,
      "Ġvital": 5870,
      "ĠStreet": 5871,
      "Ġindex": 5872,
      "athy": 5873,
      "Ġdeliver": 5874,
      "Ġcolleagues": 5875,
      "Ġentirely": 5876,
      "Ġroute": 5877,
      "ĠRevolution": 5878,
      "ĠPortug": 5879,
      "Ġcircumst": 5880,
      "77": 5881,
      "bec": 5882,
      "such": 5883,
      "Ġtons": 5884,
      "iner": 5885,
      "Ġoption": 5886,
      "Ġing": 5887,
      "ulin": 5888,
      "ĠHospital": 5889,
      "ĠData": 5890,
      "ĠThough": 5891,
      "ĠChic": 5892,
      "Ġindeed": 5893,
      "Ġunderstood": 5894,
      "Ġmedium": 5895,
      "Ġfewer": 5896,
      "Ġcalcium": 5897,
      "udej": 5898,
      "Ġnecessarily": 5899,
      "Ġsurvive": 5900,
      "Ġsatell": 5901,
      "Ġleadership": 5902,
      "Ġharvest": 5903,
      "html": 5904,
      "Ġmath": 5905,
      "Ġgone": 5906,
      "ĠMudej": 5907,
      "iest": 5908,
      "ĠDet": 5909,
      "Ġcontribute": 5910,
      "azine": 5911,
      "Ġlisten": 5912,
      "ĠBoard": 5913,
      "Ġmountain": 5914,
      "Ġaccompl": 5915,
      "ĠDesign": 5916,
      "Ġdiscrimination": 5917,
      "Ġflex": 5918,
      "olid": 5919,
      "ĠHa": 5920,
      "ĠRob": 5921,
      "ĠOh": 5922,
      "ĠVis": 5923,
      "Ġregional": 5924,
      "Ġdepends": 5925,
      "ĠSpanish": 5926,
      "Ġguidelines": 5927,
      "Ġoperate": 5928,
      "Ġelev": 5929,
      "Ġlisted": 5930,
      "Ġrecognize": 5931,
      "Ġtells": 5932,
      "brew": 5933,
      "Ġsatis": 5934,
      "ĠDirector": 5935,
      "Ġcrops": 5936,
      "Ġexcellent": 5937,
      "ture": 5938,
      "wing": 5939,
      "Ġconstit": 5940,
      "Ġaren": 5941,
      "umps": 5942,
      "ĠFour": 5943,
      "ocracy": 5944,
      "ĠThree": 5945,
      "agn": 5946,
      "Ġdesalination": 5947,
      "Ġrefers": 5948,
      "Ġpossibly": 5949,
      "Ġ1960": 5950,
      "Ġindicates": 5951,
      "Ġfluid": 5952,
      "IDS": 5953,
      "ĠAustralian": 5954,
      "Ġpictures": 5955,
      "ĠCurrent": 5956,
      "Ġawareness": 5957,
      "ĠMalays": 5958,
      "Ġvegetables": 5959,
      "Ġphilosophy": 5960,
      "03": 5961,
      "Ġille": 5962,
      "Ġwave": 5963,
      "Ġdaughter": 5964,
      "road": 5965,
      "ett": 5966,
      "tery": 5967,
      "ĠGulf": 5968,
      "ipal": 5969,
      "oking": 5970,
      "luding": 5971,
      "ĠHebrew": 5972,
      "Ġ500": 5973,
      "Ġsimpl": 5974,
      "ĠIndians": 5975,
      "Ġreactions": 5976,
      "steroid": 5977,
      "ĠParty": 5978,
      "Ġslowly": 5979,
      "Ġhoriz": 5980,
      "Ġdecrease": 5981,
      "Ġadministration": 5982,
      "Ġpowers": 5983,
      "Ġequivalent": 5984,
      "rans": 5985,
      "Ġcrim": 5986,
      "Ġinject": 5987,
      "Ġmice": 5988,
      "leg": 5989,
      "asks": 5990,
      "Ġlose": 5991,
      "terior": 5992,
      "ĠOcean": 5993,
      "ificial": 5994,
      "ĠAlz": 5995,
      "Ġpretty": 5996,
      "Ġfigures": 5997,
      "Ġconventional": 5998,
      "CO": 5999,
      "pet": 6000,
      "pass": 6001,
      "point": 6002,
      "tion": 6003,
      "yright": 6004,
      "Ġmort": 6005,
      "ĠPan": 6006,
      "ĠPage": 6007,
      "ĠEth": 6008,
      "ĠNorthern": 6009,
      "Ġspend": 6010,
      "Ġimper": 6011,
      "ishop": 6012,
      "Ġmedications": 6013,
      "vironments": 6014,
      "Ġelections": 6015,
      "Ġvisible": 6016,
      "Ġrepresented": 6017,
      "Ġsumm": 6018,
      "ĠConservation": 6019,
      "Ġinjuries": 6020,
      "Ġrevealed": 6021,
      "Ġtumor": 6022,
      "ĠBrazil": 6023,
      "Ġvessels": 6024,
      "ĠSouthern": 6025,
      "86": 6026,
      "99": 6027,
      "IG": 6028,
      "Ġsan": 6029,
      "oples": 6030,
      "ategy": 6031,
      "ĠRome": 6032,
      "Ġarrest": 6033,
      "Ġunknown": 6034,
      "Ġcommitted": 6035,
      "Ġamb": 6036,
      "ĠConst": 6037,
      "Ġstrategy": 6038,
      "Ġsolutions": 6039,
      "ĠManagement": 6040,
      "Ġjoin": 6041,
      "Ġapart": 6042,
      "Ġspiritual": 6043,
      "ĠAlzheimer": 6044,
      "CL": 6045,
      "UN": 6046,
      "Ã³": 6047,
      "Ġinhib": 6048,
      "Ġmur": 6049,
      "Ġnaturally": 6050,
      "ĠId": 6051,
      "Ġalg": 6052,
      "ĠWhe": 6053,
      "ĠWil": 6054,
      "ĠEr": 6055,
      "Ġchosen": 6056,
      "Ġspin": 6057,
      "Ġsomewhat": 6058,
      "Ġinterf": 6059,
      "Ġperspective": 6060,
      "ĠRef": 6061,
      "Ġentered": 6062,
      "Ġfollows": 6063,
      "ployment": 6064,
      "Ġimmun": 6065,
      "Ġframework": 6066,
      "Ġprepare": 6067,
      "Ġforests": 6068,
      "eenth": 6069,
      "king": 6070,
      "ura": 6071,
      "Ġath": 6072,
      "Ġsail": 6073,
      "Ġmaster": 6074,
      "Ġdiversity": 6075,
      "ĠRoyal": 6076,
      "Ġdoi": 6077,
      "erves": 6078,
      "Ġraise": 6079,
      "Ġmarked": 6080,
      "Ġdogs": 6081,
      "Ġconsequences": 6082,
      "rative": 6083,
      "Ġdrought": 6084,
      "Ġnone": 6085,
      "ĠAgency": 6086,
      "Ġorient": 6087,
      "ocy": 6088,
      "Ġsports": 6089,
      "Ġintervention": 6090,
      "Ġdefe": 6091,
      "Ġglass": 6092,
      "Ġparallel": 6093,
      "Ġfacilit": 6094,
      "Ġfocused": 6095,
      "Ġinterpre": 6096,
      "ioxide": 6097,
      "Ġfalse": 6098,
      "Ġvulner": 6099,
      "awn": 6100,
      "run": 6101,
      "rary": 6102,
      "inos": 6103,
      "Ġmand": 6104,
      "olit": 6105,
      "ĠIN": 6106,
      "Ġanx": 6107,
      "ĠWik": 6108,
      "Ġcomments": 6109,
      "ocument": 6110,
      "ĠList": 6111,
      "peror": 6112,
      "Ġjour": 6113,
      "Ġoutl": 6114,
      "Ġinterview": 6115,
      "Ġexplo": 6116,
      "Ġopening": 6117,
      "Ġswim": 6118,
      "Ġrivers": 6119,
      "Ġhydrogen": 6120,
      "ĠAlexander": 6121,
      "ĠRichard": 6122,
      "Ġmerely": 6123,
      "cons": 6124,
      "ss": 6125,
      "Ġcars": 6126,
      "Ġwitness": 6127,
      "Ġles": 6128,
      "ĠMah": 6129,
      "ĠMicro": 6130,
      "ĠEff": 6131,
      "ĠVer": 6132,
      "cience": 6133,
      "Ġagreed": 6134,
      "Ġnoise": 6135,
      "erman": 6136,
      "Ġsurve": 6137,
      "Ġobl": 6138,
      "Ġhelpful": 6139,
      "exp": 6140,
      "Ġextract": 6141,
      "comes": 6142,
      "Ġdescribes": 6143,
      "ĠStudy": 6144,
      "rastructure": 6145,
      "ĠMaryland": 6146,
      "ĠNetwork": 6147,
      "ĠKorea": 6148,
      "Ġcandid": 6149,
      "Ġaccurate": 6150,
      "04": 6151,
      "65": 6152,
      "dden": 6153,
      "orrow": 6154,
      "ario": 6155,
      "ĠMS": 6156,
      "ĠEp": 6157,
      "Ġchain": 6158,
      "ogle": 6159,
      "ĠJon": 6160,
      "Ġcomposition": 6161,
      "Ġmanip": 6162,
      "Ġappeal": 6163,
      "teb": 6164,
      "Ġcenters": 6165,
      "Ġelectron": 6166,
      "Ġbiology": 6167,
      "ĠParis": 6168,
      "ĠLearning": 6169,
      "ĠScientists": 6170,
      "gov": 6171,
      "Ġsections": 6172,
      "esis": 6173,
      "Ġgender": 6174,
      "that": 6175,
      "Ġchromos": 6176,
      "Ġenable": 6177,
      "Ġclick": 6178,
      "Ġmanaged": 6179,
      "Ġdepression": 6180,
      "Ġgenerated": 6181,
      "ĠAdd": 6182,
      "ĠScott": 6183,
      "Ġemployed": 6184,
      "Ġagreement": 6185,
      "Ġhonor": 6186,
      "ĠForest": 6187,
      "Ġquarter": 6188,
      "Ġannounced": 6189,
      "01": 6190,
      "02": 6191,
      "IP": 6192,
      "cription": 6193,
      "called": 6194,
      "mas": 6195,
      "Ġcert": 6196,
      "Ġlake": 6197,
      "ĠSand": 6198,
      "ĠSection": 6199,
      "add": 6200,
      "ĠForm": 6201,
      "anta": 6202,
      "ĠStar": 6203,
      "Ġ32": 6204,
      "Ġconfir": 6205,
      "ĠAddition": 6206,
      "Ġmatters": 6207,
      "Ġideal": 6208,
      "Ġprompt": 6209,
      "Ġfeeling": 6210,
      "Ġdivor": 6211,
      "ĠSupp": 6212,
      "aska": 6213,
      "ĠMartin": 6214,
      "74": 6215,
      "Ġtank": 6216,
      "Ġlibrary": 6217,
      "ĠAM": 6218,
      "eline": 6219,
      "ĠDown": 6220,
      "ĠFollow": 6221,
      "Ġenvironments": 6222,
      "ĠChapter": 6223,
      "ĠItalian": 6224,
      "teen": 6225,
      "There": 6226,
      "Ġcarefully": 6227,
      "Ġslaves": 6228,
      "Ġmarried": 6229,
      "Ġsuccessfully": 6230,
      "Ġhorse": 6231,
      "Ġstruggle": 6232,
      "ga": 6233,
      "Ġaw": 6234,
      "Ġaward": 6235,
      "imens": 6236,
      "Ġvoice": 6237,
      "Ġappreci": 6238,
      "âĢĿ,": 6239,
      "Ġblog": 6240,
      "Ġflight": 6241,
      "Ġdefense": 6242,
      "Ġeditor": 6243,
      "Ġstudying": 6244,
      "Ġgrass": 6245,
      "Ġinteraction": 6246,
      "ĠGuide": 6247,
      "ĠAgricult": 6248,
      "Ġvehicle": 6249,
      "Ġantibiot": 6250,
      "ĠAtlantic": 6251,
      "Ġcontemporary": 6252,
      "Ġlaunched": 6253,
      "EP": 6254,
      "pread": 6255,
      "rete": 6256,
      "alysis": 6257,
      "Ġstock": 6258,
      "ĠMake": 6259,
      "Ġsudden": 6260,
      "Ġseed": 6261,
      "Ġtract": 6262,
      "Ġroll": 6263,
      "Ġinvent": 6264,
      "Ġflag": 6265,
      "Ġcourses": 6266,
      "Ġrising": 6267,
      "Ġdelay": 6268,
      "Ġruns": 6269,
      "Ġdeaths": 6270,
      "Ġassociation": 6271,
      "Ġfishing": 6272,
      "ascular": 6273,
      "Ġcaptured": 6274,
      "Ġconstructed": 6275,
      "Ġemotional": 6276,
      "ochond": 6277,
      "Ġinstrument": 6278,
      "ĠWildlife": 6279,
      ",'": 6280,
      "73": 6281,
      "CT": 6282,
      "You": 6283,
      "born": 6284,
      "cus": 6285,
      "free": 6286,
      "yal": 6287,
      "yth": 6288,
      "Ġtheories": 6289,
      "Ġcup": 6290,
      "Ġcatch": 6291,
      "Ġdioxide": 6292,
      "asure": 6293,
      "ĠTop": 6294,
      "using": 6295,
      "ĠUt": 6296,
      "osex": 6297,
      "Ġunion": 6298,
      "Ġunable": 6299,
      "Ġuniform": 6300,
      "ĠKnow": 6301,
      "Ġsole": 6302,
      "Ġ75": 6303,
      "Ġofficers": 6304,
      "Ġparticipate": 6305,
      "Ġhistoric": 6306,
      "chez": 6307,
      "Ġdemonstrated": 6308,
      "Ġregularly": 6309,
      "Ġtouch": 6310,
      ".]": 6311,
      "06": 6312,
      "?\"": 6313,
      "bar": 6314,
      "mond": 6315,
      "under": 6316,
      "ato": 6317,
      "Ġsight": 6318,
      "ĠTem": 6319,
      "ĠCard": 6320,
      "ĠMu": 6321,
      "Ġprove": 6322,
      "ĠWrit": 6323,
      "usal": 6324,
      "ĠFact": 6325,
      "ĠEc": 6326,
      "ĠGold": 6327,
      "Ġworse": 6328,
      "Ġunus": 6329,
      "Ġmedic": 6330,
      "Ġfoundation": 6331,
      "ĠEncyclopedia": 6332,
      "Ġsets": 6333,
      "idespread": 6334,
      "ĠUSA": 6335,
      "Ġintroduction": 6336,
      "Ġjudge": 6337,
      "Ġcompetition": 6338,
      "ĠMuslims": 6339,
      "Ġagriculture": 6340,
      "Ġgranted": 6341,
      "Ġingred": 6342,
      "ĠChicago": 6343,
      "Ġwel": 6344,
      "Ġbatter": 6345,
      "Ġbudget": 6346,
      "Ġdream": 6347,
      "Ġgy": 6348,
      "Ġstret": 6349,
      "ĠFind": 6350,
      "agle": 6351,
      "Ġmanage": 6352,
      "Ġuns": 6353,
      "Ġscene": 6354,
      "Ġdefend": 6355,
      "ĠWeek": 6356,
      "anguage": 6357,
      "Ġcombat": 6358,
      "Ġoptical": 6359,
      "Ġmechanisms": 6360,
      "ĠPrince": 6361,
      "Ġcooling": 6362,
      "Ġultimately": 6363,
      "ĠFinally": 6364,
      "ĠJoseph": 6365,
      "CR": 6366,
      "Ph": 6367,
      "no": 6368,
      "Ã¼": 6369,
      "ano": 6370,
      "Ġinert": 6371,
      "icide": 6372,
      "ĠTor": 6373,
      "ĠTim": 6374,
      "ĠSometimes": 6375,
      "ĠNative": 6376,
      "Ġneither": 6377,
      "Ġcontamin": 6378,
      "icted": 6379,
      "Ġafford": 6380,
      "Ġdirected": 6381,
      "Ġ1969": 6382,
      "Ġresponses": 6383,
      "Ġemployees": 6384,
      "Ġwindow": 6385,
      "Ġdivision": 6386,
      "hyth": 6387,
      "ceeded": 6388,
      "Ġsoldiers": 6389,
      "Ġbeautiful": 6390,
      "Ġfertil": 6391,
      "ĠDistrict": 6392,
      "43": 6393,
      "hand": 6394,
      "produ": 6395,
      "xts": 6396,
      "Ġaqu": 6397,
      "Ġfasc": 6398,
      "Ġbear": 6399,
      "Ġgay": 6400,
      "ĠSup": 6401,
      "ifest": 6402,
      "estine": 6403,
      "ĠRab": 6404,
      "andon": 6405,
      "Ġabund": 6406,
      "Ġintake": 6407,
      "ĠKar": 6408,
      "Ġexpansion": 6409,
      "Ġ400": 6410,
      "Ġcourts": 6411,
      "ĠResources": 6412,
      "Ġcrime": 6413,
      "Ġmoral": 6414,
      "Ġachieved": 6415,
      "Ġderived": 6416,
      "Ġfibers": 6417,
      "cul": 6418,
      "Ġwish": 6419,
      "Ġfill": 6420,
      "adel": 6421,
      "ĠHave": 6422,
      "fficking": 6423,
      "Ġconscious": 6424,
      "Ġpoison": 6425,
      "Ġchildhood": 6426,
      "Ġremote": 6427,
      "arsh": 6428,
      "Ġsecure": 6429,
      "Ġengaged": 6430,
      "Ġinvestigation": 6431,
      "Ġvaccine": 6432,
      "ĠCopyright": 6433,
      "Ġsell": 6434,
      "Ġft": 6435,
      "arant": 6436,
      "omach": 6437,
      "ĠCamp": 6438,
      "othe": 6439,
      "ĠIV": 6440,
      "ĠMer": 6441,
      "osion": 6442,
      "Ġresidents": 6443,
      "Ġages": 6444,
      "Ġdefects": 6445,
      "Ġlocations": 6446,
      "Ġ1996": 6447,
      "Ġmyth": 6448,
      "Ġwriters": 6449,
      "Ġstands": 6450,
      "Ġstanding": 6451,
      "ĠAdv": 6452,
      "Ġlegs": 6453,
      "Ġnearby": 6454,
      "Ġrestrict": 6455,
      "ĠOrig": 6456,
      "Ġfacility": 6457,
      "Ġgrew": 6458,
      "Ġdriving": 6459,
      "scale": 6460,
      "Ġconsumers": 6461,
      "Ġinteractions": 6462,
      "Ġcouncil": 6463,
      "Ġburning": 6464,
      "Ġaudio": 6465,
      "Ġcloser": 6466,
      "bir": 6467,
      "body": 6468,
      "nger": 6469,
      "Ġwid": 6470,
      "Ġbeds": 6471,
      "Ġrecept": 6472,
      "ĠPo": 6473,
      "Ġcomfort": 6474,
      "ĠDu": 6475,
      "ĠFDA": 6476,
      "ĠLand": 6477,
      "Ġends": 6478,
      "outs": 6479,
      "ibilities": 6480,
      "Ġdoor": 6481,
      "Ġcommittee": 6482,
      "Ġscan": 6483,
      "Ġedition": 6484,
      "ĠResearchers": 6485,
      "ipping": 6486,
      "while": 6487,
      "Ġholding": 6488,
      "Ġdeclared": 6489,
      "Ġcarrying": 6490,
      "burg": 6491,
      "Ġmobile": 6492,
      "Ġenhance": 6493,
      "Ġcircumstances": 6494,
      "72": 6495,
      "79": 6496,
      "des": 6497,
      "know": 6498,
      "icks": 6499,
      "rovers": 6500,
      "ĠAP": 6501,
      "raq": 6502,
      "ĠCat": 6503,
      "ĠBack": 6504,
      "ĠHam": 6505,
      "ricts": 6506,
      "Ġpeoples": 6507,
      "Ġregulations": 6508,
      "Ġowner": 6509,
      "Ġlesson": 6510,
      "Ġengage": 6511,
      "ĠChristians": 6512,
      "Ġaccounts": 6513,
      "Ġmolecular": 6514,
      "Ġcoastal": 6515,
      "Ġrarely": 6516,
      "Is": 6517,
      "Ġsought": 6518,
      "organ": 6519,
      "Ġfract": 6520,
      "ols": 6521,
      "eren": 6522,
      "osh": 6523,
      "Ġyounger": 6524,
      "unicip": 6525,
      "Ġabnormal": 6526,
      "Ġcomposed": 6527,
      "Ġinfrastructure": 6528,
      "ensions": 6529,
      "weight": 6530,
      "Ġknows": 6531,
      "Ġparam": 6532,
      "Ġnetworks": 6533,
      "Ġdifficulty": 6534,
      "Ġintegrated": 6535,
      "Ġsituations": 6536,
      "Ġmosquit": 6537,
      "http": 6538,
      "oir": 6539,
      "tic": 6540,
      "rection": 6541,
      "ctive": 6542,
      "ĠSever": 6543,
      "Ġrig": 6544,
      "ĠOk": 6545,
      "Ġabandon": 6546,
      "earing": 6547,
      "ĠAsian": 6548,
      "Ġattend": 6549,
      "Ġpublication": 6550,
      "ĠEngine": 6551,
      "Ġsecondary": 6552,
      "ĠMinister": 6553,
      "Ġarrived": 6554,
      "Ġethnic": 6555,
      "Ġkilomet": 6556,
      "ĠColorado": 6557,
      ")|": 6558,
      "gent": 6559,
      "la": 6560,
      "inn": 6561,
      "inic": 6562,
      "iti": 6563,
      "Ġbrand": 6564,
      "ĠCall": 6565,
      "ĠEPA": 6566,
      "Ġenforce": 6567,
      "Ġcommission": 6568,
      "Ġrail": 6569,
      "Ġcolumn": 6570,
      "ifications": 6571,
      "oved": 6572,
      "Ġremark": 6573,
      "Ġvaluable": 6574,
      "Ġbreeding": 6575,
      "Ġinvolving": 6576,
      "prise": 6577,
      "ĠGoogle": 6578,
      "Ġinvestment": 6579,
      "Ġstrike": 6580,
      "Ġinstitution": 6581,
      "Ġhypothes": 6582,
      "Ġconcluded": 6583,
      "69": 6584,
      "rep": 6585,
      "Ġfurn": 6586,
      "Ġmoon": 6587,
      "eters": 6588,
      "ĠCle": 6589,
      "ĠNov": 6590,
      "arts": 6591,
      "Ġplate": 6592,
      "ĠItaly": 6593,
      "Ġmetab": 6594,
      "Ġdefine": 6595,
      "oung": 6596,
      "Ġsupports": 6597,
      "Ġmanufacturing": 6598,
      "ĠPMID": 6599,
      "zed": 6600,
      "Ġtheore": 6601,
      "Ġpig": 6602,
      "Ġpounds": 6603,
      "Ġbomb": 6604,
      "Ġfilled": 6605,
      "Ġhun": 6606,
      "Ġnest": 6607,
      "ĠMel": 6608,
      "ĠMos": 6609,
      "Ġwhatever": 6610,
      "ĠBill": 6611,
      "eck": 6612,
      "ilding": 6613,
      "bert": 6614,
      "Ġpreced": 6615,
      "Ġaccum": 6616,
      "Ġsupplement": 6617,
      "Ġwhereas": 6618,
      "Ġentry": 6619,
      "Ġminute": 6620,
      "Ġplaying": 6621,
      "Ġsignificance": 6622,
      "Ġphoto": 6623,
      "Ġconsistent": 6624,
      "Ġvictims": 6625,
      "Ġhazard": 6626,
      "ĠAdministration": 6627,
      "adelph": 6628,
      "44": 6629,
      "SS": 6630,
      "lv": 6631,
      "ua": 6632,
      "Äģ": 6633,
      "Ġtaught": 6634,
      "indu": 6635,
      "Ġnob": 6636,
      "ĠAff": 6637,
      "Ġgather": 6638,
      "ĠMad": 6639,
      "Ġexists": 6640,
      "Ġchick": 6641,
      "Ġdisabilities": 6642,
      "Ġwilling": 6643,
      "Ġagents": 6644,
      "Ġprovince": 6645,
      "Ġsigned": 6646,
      "Ġpatent": 6647,
      "Ġshell": 6648,
      "Ġspeaking": 6649,
      "ĠBeh": 6650,
      "Ġterritory": 6651,
      "',": 6652,
      "71": 6653,
      "Ar": 6654,
      "po": 6655,
      "Ġtal": 6656,
      "Ġwidespread": 6657,
      "Ġbanks": 6658,
      "Ġmail": 6659,
      "Ġdiam": 6660,
      "roat": 6661,
      "ĠAccess": 6662,
      "Ġstomach": 6663,
      "ĠMot": 6664,
      "Ġ(\"": 6665,
      "operation": 6666,
      "rier": 6667,
      "acters": 6668,
      "Ġrow": 6669,
      "tenance": 6670,
      "Ġstring": 6671,
      "Ġcriteria": 6672,
      "Ġrepresentation": 6673,
      "Ġzone": 6674,
      "Ġfrequent": 6675,
      "ĠMinistry": 6676,
      "ĠPerhaps": 6677,
      "ĠVolume": 6678,
      "Ġcluster": 6679,
      "\")": 6680,
      "New": 6681,
      "Un": 6682,
      "Ġaf": 6683,
      "Ġasteroid": 6684,
      "erals": 6685,
      "Ġcognitive": 6686,
      "Ġnose": 6687,
      "ĠSat": 6688,
      "ĠSil": 6689,
      "Ġneur": 6690,
      "ĠLiter": 6691,
      "ĠJac": 6692,
      "Ġbutter": 6693,
      "Ġdecide": 6694,
      "Ġprotocol": 6695,
      "Ġpassage": 6696,
      "Ġputting": 6697,
      "Ġimmig": 6698,
      "Ġdiagnosed": 6699,
      "Ġsoul": 6700,
      "ĠObject": 6701,
      "Ġobtain": 6702,
      "Ġsweet": 6703,
      "Ġcamera": 6704,
      "gu": 6705,
      "ivery": 6706,
      "rint": 6707,
      "Ġske": 6708,
      "Ġpark": 6709,
      "Ġpapers": 6710,
      "sey": 6711,
      "ĠBank": 6712,
      "ĠHit": 6713,
      "ĠHunting": 6714,
      "ĠDou": 6715,
      "ĠRom": 6716,
      "Ġusage": 6717,
      "ounded": 6718,
      "Ġroyal": 6719,
      "Ġcovers": 6720,
      "Ġgravity": 6721,
      "Ġinsurance": 6722,
      "2012": 6723,
      "Ġopposed": 6724,
      "Ġessay": 6725,
      "Ġsuffer": 6726,
      "ĠHeritage": 6727,
      "Ġfighting": 6728,
      "Ġwalking": 6729,
      "Ġratio": 6730,
      "Ġdedicated": 6731,
      "itudes": 6732,
      "Ġlandscape": 6733,
      "adelphia": 6734,
      "95": 6735,
      "IL": 6736,
      "MS": 6737,
      "Ġtall": 6738,
      "hered": 6739,
      "Ġrein": 6740,
      "ĠSk": 6741,
      "Ġyield": 6742,
      "erent": 6743,
      "Ġsuitable": 6744,
      "Ġdepartment": 6745,
      "Ġhandle": 6746,
      "Ġapproved": 6747,
      "Ġguarant": 6748,
      "Ġseconds": 6749,
      "Ġzero": 6750,
      "ĠGeorg": 6751,
      "Ġestimates": 6752,
      "ĠAngola": 6753,
      "Ġwatershed": 6754,
      "Ġcomparison": 6755,
      "ĠFrancisco": 6756,
      "fortunately": 6757,
      "vard": 6758,
      "rem": 6759,
      "Ġcoc": 6760,
      "Ġcited": 6761,
      "Ġcodes": 6762,
      "ani": 6763,
      "omer": 6764,
      "ĠIraq": 6765,
      "ĠMen": 6766,
      "ading": 6767,
      "ĠFace": 6768,
      "Ġneck": 6769,
      "orted": 6770,
      "earch": 6771,
      "Ġcontrovers": 6772,
      "igned": 6773,
      "Ġregul": 6774,
      "Ġobst": 6775,
      "Ġcentre": 6776,
      "Ġsignals": 6777,
      "Ġdistur": 6778,
      "Ġcurriculum": 6779,
      "Ġgenerations": 6780,
      "Ġwriter": 6781,
      "Ġprophe": 6782,
      "Ġparticipation": 6783,
      "ĠQuest": 6784,
      "Ġimplementation": 6785,
      "Ġphenomenon": 6786,
      "Ġdollars": 6787,
      "Ġnewspaper": 6788,
      "ĠSupreme": 6789,
      "BS": 6790,
      "rite": 6791,
      "herent": 6792,
      "onents": 6793,
      "anes": 6794,
      "irt": 6795,
      "eless": 6796,
      "ĠLow": 6797,
      "Ġchapter": 6798,
      "ĠOF": 6799,
      "Ġplus": 6800,
      "Ġoutcome": 6801,
      "iana": 6802,
      "Ġundert": 6803,
      "Ġproved": 6804,
      "Ġtransition": 6805,
      "ventions": 6806,
      "Ġplanned": 6807,
      "Ġspacecraft": 6808,
      "Ġcreative": 6809,
      "Ġsuffered": 6810,
      "Ġconcentrations": 6811,
      "Ġvariable": 6812,
      "Ġtaxes": 6813,
      "ĠObama": 6814,
      "Ġmagnetic": 6815,
      "Ġdependent": 6816,
      "ĠSurvey": 6817,
      "Ġfairly": 6818,
      "Ġfixed": 6819,
      "Ġtrouble": 6820,
      "ĠDisease": 6821,
      "Ġexplanation": 6822,
      "ĠNatchez": 6823,
      "ĠOhio": 6824,
      "aired": 6825,
      "gs": 6826,
      "iations": 6827,
      "Ġfed": 6828,
      "Ġmild": 6829,
      "Ġhunting": 6830,
      "Ġconclusion": 6831,
      "Ġorb": 6832,
      "ĠHo": 6833,
      "ivated": 6834,
      "Ġ1950": 6835,
      "Ġtexts": 6836,
      "Ġoverl": 6837,
      "Ġscientist": 6838,
      "Ġimproving": 6839,
      "Ġcreates": 6840,
      "Ġphotos": 6841,
      "Ġthreatened": 6842,
      "Ġpermission": 6843,
      "Ġexpanded": 6844,
      "Ġbreathing": 6845,
      "Ġinstruments": 6846,
      "cribed": 6847,
      "ĠAriz": 6848,
      "Ġsurfaces": 6849,
      "'.": 6850,
      "41": 6851,
      "He": 6852,
      "OL": 6853,
      "fish": 6854,
      "iability": 6855,
      "mail": 6856,
      "ugg": 6857,
      "Ġcrow": 6858,
      "Ġble": 6859,
      "Ġtomat": 6860,
      "Ġeld": 6861,
      "stone": 6862,
      "ima": 6863,
      "ĠPolic": 6864,
      "ĠHoly": 6865,
      "Ġexchange": 6866,
      "ĠNext": 6867,
      "Ġcontained": 6868,
      "Ġcloud": 6869,
      "Ġpersist": 6870,
      "Ġdescend": 6871,
      "Ġslavery": 6872,
      "Ġopposite": 6873,
      "Ġmarkets": 6874,
      "Ġchest": 6875,
      "Ġseemed": 6876,
      "Ġtruly": 6877,
      "ĠMoreover": 6878,
      "ĠBooks": 6879,
      "Ġcardi": 6880,
      "Ġassigned": 6881,
      "Ġprofessionals": 6882,
      "ĠFamily": 6883,
      "Ġmoisture": 6884,
      "'d": 6885,
      "rigation": 6886,
      "uracy": 6887,
      "zer": 6888,
      "itarian": 6889,
      "Ġpou": 6890,
      "Ġpra": 6891,
      "Ġfisher": 6892,
      "Ġdiverse": 6893,
      "etary": 6894,
      "ĠCross": 6895,
      "ĠPen": 6896,
      "Ġalter": 6897,
      "Ġrid": 6898,
      "Ġplays": 6899,
      "Ġdisk": 6900,
      "Ġinches": 6901,
      "ults": 6902,
      "Ġtrain": 6903,
      "Ġsmooth": 6904,
      "Ġextend": 6905,
      "uese": 6906,
      "Ġthoughts": 6907,
      "Ġphysics": 6908,
      "lishing": 6909,
      "Ġpainting": 6910,
      "rolled": 6911,
      "ĠÂ·": 6912,
      "ĠPrevention": 6913,
      "Ġgreenhouse": 6914,
      "Ġdemonstrate": 6915,
      "____": 6916,
      "ĠKeep": 6917,
      "ĠCommunity": 6918,
      "Ġmicros": 6919,
      "ĠOrganization": 6920,
      "Ġadequate": 6921,
      "Ġcriminal": 6922,
      "names": 6923,
      "ship": 6924,
      "Ġaer": 6925,
      "Ġwants": 6926,
      "igan": 6927,
      "Ġongoing": 6928,
      "Ġchlor": 6929,
      "ansas": 6930,
      "ateral": 6931,
      "Ġregime": 6932,
      "inking": 6933,
      "Ġinterior": 6934,
      "Ġseeing": 6935,
      "Ġestimate": 6936,
      "Ġequally": 6937,
      "Ġcharacters": 6938,
      "ĠSuper": 6939,
      "ĠMean": 6940,
      "Ġearthqu": 6941,
      "ĠAngel": 6942,
      "copation": 6943,
      "ĠConfed": 6944,
      "ĠTreatment": 6945,
      "ĠWindows": 6946,
      "ĠOxford": 6947,
      "DT": 6948,
      "flow": 6949,
      "li": 6950,
      "rants": 6951,
      "Ġâ": 6952,
      "esity": 6953,
      "orter": 6954,
      "orous": 6955,
      "Ġpit": 6956,
      "ĠDictionary": 6957,
      "Ġseat": 6958,
      "Ġshif": 6959,
      "ipedia": 6960,
      "Ġprev": 6961,
      "Ġassume": 6962,
      "Ġhighlight": 6963,
      "Ġdistricts": 6964,
      "Ġartificial": 6965,
      "Ġ1991": 6966,
      "Ġconference": 6967,
      "Ġdelivery": 6968,
      "elfare": 6969,
      "Ġdrawn": 6970,
      "Ġflower": 6971,
      "Ġstrongly": 6972,
      "Ġsuffering": 6973,
      "Ġturning": 6974,
      "ĠSolar": 6975,
      "Ġmathematics": 6976,
      "Ġstroke": 6977,
      "ĠMalaysia": 6978,
      "For": 6979,
      "upp": 6980,
      "Ġsession": 6981,
      "sell": 6982,
      "Ġgained": 6983,
      "ĠSar": 6984,
      "ĠBureau": 6985,
      "ĠFund": 6986,
      "Ġwasn": 6987,
      "Ġchair": 6988,
      "Ġsharing": 6989,
      "assination": 6990,
      "Ġoutbre": 6991,
      "Ġaccident": 6992,
      "ypes": 6993,
      "Ġdepart": 6994,
      "Ġservers": 6995,
      "Ġpassing": 6996,
      "Ġopposition": 6997,
      "Ġcircle": 6998,
      "ippi": 6999,
      "Ġconsiderable": 7000,
      "Ġmechanical": 7001,
      "ĠCheck": 7002,
      "Ġtalking": 7003,
      "Ġvillages": 7004,
      "ĠPhiladelphia": 7005,
      "ĠIranian": 7006,
      "ĠSeveral": 7007,
      "De": 7008,
      "ean": 7009,
      "Ġmm": 7010,
      "ĠCreat": 7011,
      "ĠBab": 7012,
      "Ġneut": 7013,
      "Ġseeds": 7014,
      "ptic": 7015,
      "Ġabst": 7016,
      "ulty": 7017,
      "Ġuniversity": 7018,
      "Ġadds": 7019,
      "Ġpolar": 7020,
      "Ġreaders": 7021,
      "Ġplanets": 7022,
      "Ġsupporting": 7023,
      "Ġofficer": 7024,
      "Ġrecognition": 7025,
      "Ġcounsel": 7026,
      "ĠSimilar": 7027,
      "ĠModern": 7028,
      "Ġseeking": 7029,
      "Ġtips": 7030,
      "ena": 7031,
      "ala": 7032,
      "ican": 7033,
      "Ġlin": 7034,
      "Ġgiant": 7035,
      "Ġanterior": 7036,
      "ĠBig": 7037,
      "umes": 7038,
      "ĠFe": 7039,
      "ĠGar": 7040,
      "Ġresolution": 7041,
      "Ġmanifest": 7042,
      "Ġ38": 7043,
      "Ġproduces": 7044,
      "Ġscar": 7045,
      "Ġmeters": 7046,
      "ĠComput": 7047,
      "Ġstatements": 7048,
      "Ġcorrel": 7049,
      "ymph": 7050,
      "Ġlabel": 7051,
      "Ġordered": 7052,
      "Ġdrawing": 7053,
      "Ġatmospheric": 7054,
      "iosity": 7055,
      "Ġcopyright": 7056,
      "Ġtasks": 7057,
      "edu": 7058,
      "asters": 7059,
      "oler": 7060,
      "Ġforth": 7061,
      "Ġstrict": 7062,
      "Ġconqu": 7063,
      "ĠDiff": 7064,
      "Ġsharp": 7065,
      "Ġintense": 7066,
      "Ġcompris": 7067,
      "Ġ37": 7068,
      "Ġthereby": 7069,
      "Ġboys": 7070,
      "Ġplane": 7071,
      "Ġparas": 7072,
      "Ġpositions": 7073,
      "Ġaccessible": 7074,
      "Ġholds": 7075,
      "ĠCoast": 7076,
      "ĠDoes": 7077,
      "Ġcomplicated": 7078,
      "Ġfemales": 7079,
      "ĠMcC": 7080,
      "Ġcovering": 7081,
      "Ġroutine": 7082,
      "ĠAuthor": 7083,
      "ĠMississ": 7084,
      "Ġmitochond": 7085,
      "ĠLaboratory": 7086,
      "Ġcommitment": 7087,
      "08": 7088,
      "gans": 7089,
      "rity": 7090,
      "uber": 7091,
      "Ġwaves": 7092,
      "ora": 7093,
      "Ġlie": 7094,
      "ĠCare": 7095,
      "Ġproof": 7096,
      "ĠWood": 7097,
      "Ġspok": 7098,
      "iah": 7099,
      "Ġdisch": 7100,
      "Ġkit": 7101,
      "Ġreserved": 7102,
      "reek": 7103,
      "ĠAsk": 7104,
      "Ġmedication": 7105,
      "They": 7106,
      "Ġmaintenance": 7107,
      "Ġfourth": 7108,
      "Ġdamaged": 7109,
      "Ġinteractive": 7110,
      "ĠValley": 7111,
      "Ġbegun": 7112,
      "Ġinstructions": 7113,
      "ĠCambod": 7114,
      "Ġinflammation": 7115,
      "Ġillegal": 7116,
      "Ġmedicines": 7117,
      "ĠHitler": 7118,
      "BI": 7119,
      "].": 7120,
      "dad": 7121,
      "Ġtropical": 7122,
      "Ġwire": 7123,
      "ester": 7124,
      "Ġfulf": 7125,
      "Ġholes": 7126,
      "ĠTake": 7127,
      "ether": 7128,
      "Ġstre": 7129,
      "Ġstable": 7130,
      "ĠMult": 7131,
      "Ġconven": 7132,
      "ĠPed": 7133,
      "ĠHung": 7134,
      "acing": 7135,
      "Ġspir": 7136,
      "Ġincl": 7137,
      "Ġdose": 7138,
      "ords": 7139,
      "ĠVen": 7140,
      "Ġconserv": 7141,
      "wealth": 7142,
      "Ġreliable": 7143,
      "Ġscript": 7144,
      "Ġacres": 7145,
      "Ġtransf": 7146,
      "ĠConference": 7147,
      "ĠArts": 7148,
      "Ġlessons": 7149,
      "ĠOnline": 7150,
      "ĠSyn": 7151,
      "aimed": 7152,
      "Ġargue": 7153,
      "ĠKingdom": 7154,
      "Ġelsewhere": 7155,
      "unteer": 7156,
      "Ġexperimental": 7157,
      "ĠIslamic": 7158,
      "Ġsacr": 7159,
      "Ġsenior": 7160,
      "ĠStandard": 7161,
      "Ġpesticides": 7162,
      "ĠArizona": 7163,
      "63": 7164,
      "98": 7165,
      "IM": 7166,
      "fts": 7167,
      "net": 7168,
      "itative": 7169,
      "itals": 7170,
      "Ġmaps": 7171,
      "otes": 7172,
      "ĠBul": 7173,
      "Ġshift": 7174,
      "ĠUnfortunately": 7175,
      "Ġaccuracy": 7176,
      "erted": 7177,
      "ĠProb": 7178,
      "Ġflo": 7179,
      "Ġinstalled": 7180,
      "venile": 7181,
      "Ġpercentage": 7182,
      "Ġcareful": 7183,
      "Ġ150": 7184,
      "Ġlaid": 7185,
      "Ġindicated": 7186,
      "Ġbiggest": 7187,
      "Ġregarded": 7188,
      "ĠMethod": 7189,
      "ĠSenate": 7190,
      "Ġupdated": 7191,
      "Ġathlet": 7192,
      "hythm": 7193,
      "FS": 7194,
      "uels": 7195,
      "Ġmercury": 7196,
      "asp": 7197,
      "ĠSix": 7198,
      "elve": 7199,
      "ĠHim": 7200,
      "ĠLess": 7201,
      "ogl": 7202,
      "ressive": 7203,
      "idential": 7204,
      "Ġcommunicate": 7205,
      "ĠSpring": 7206,
      "ĠLee": 7207,
      "arents": 7208,
      "ographical": 7209,
      "Ġposterior": 7210,
      "Ġveter": 7211,
      "Ġdestruction": 7212,
      "Ġseparated": 7213,
      "Ġdebris": 7214,
      "Ġbabies": 7215,
      "Ġtransportation": 7216,
      "Ġbranch": 7217,
      "Ġisolated": 7218,
      "igenous": 7219,
      "Ġsatellite": 7220,
      "ĠMississippi": 7221,
      "Ġbio": 7222,
      "Ġinternet": 7223,
      "Ġhidden": 7224,
      "Ġnurs": 7225,
      "Ġgap": 7226,
      "ette": 7227,
      "ĠChem": 7228,
      "Ġstages": 7229,
      "aders": 7230,
      "Ġwithd": 7231,
      "ĠEastern": 7232,
      "ĠObs": 7233,
      "ĠJr": 7234,
      "ultane": 7235,
      "Ġpeak": 7236,
      "Ġamino": 7237,
      "ĠAssembly": 7238,
      "angered": 7239,
      "Ġmodified": 7240,
      "Ġcommunications": 7241,
      "Ġboat": 7242,
      "Ġdownload": 7243,
      "theless": 7244,
      "Ġindustries": 7245,
      "Ġdigest": 7246,
      "Ġtribes": 7247,
      "iblical": 7248,
      "ĠConnect": 7249,
      "Ġsubsequent": 7250,
      "How": 7251,
      "car": 7252,
      "Ġcav": 7253,
      "Ġpus": 7254,
      "ĠHand": 7255,
      "ĠGard": 7256,
      "ĠLo": 7257,
      "ograp": 7258,
      "rous": 7259,
      "avor": 7260,
      "Ġoutcomes": 7261,
      "Ġ55": 7262,
      "Ġinterface": 7263,
      "Ġ1880": 7264,
      "Ġearn": 7265,
      "Ġgrade": 7266,
      "Ġended": 7267,
      "Ġsheet": 7268,
      "Ġcorpor": 7269,
      "Ġvisited": 7270,
      "Ġbelieves": 7271,
      "Ġcultures": 7272,
      "Ġvisitors": 7273,
      "Ġmessages": 7274,
      "Ġkingdom": 7275,
      "ĠEgyptian": 7276,
      "Ġtoxicity": 7277,
      "Ġsubstantial": 7278,
      "ĠPortuguese": 7279,
      "xml": 7280,
      "Ã§": 7281,
      "alm": 7282,
      "ĠTri": 7283,
      "utch": 7284,
      "Ġforget": 7285,
      "ĠMove": 7286,
      "ĠEst": 7287,
      "Ġ1930": 7288,
      "Ġperception": 7289,
      "Ġevident": 7290,
      "Ġrab": 7291,
      "Ġacids": 7292,
      "Ġedge": 7293,
      "Ġ65": 7294,
      "Ġtempor": 7295,
      "Ġ1988": 7296,
      "2009": 7297,
      "ĠAbra": 7298,
      "Ġoptim": 7299,
      "Ġattempts": 7300,
      "Ġordinary": 7301,
      "Ġkilling": 7302,
      "Ġcrack": 7303,
      "ĠEconomic": 7304,
      "CI": 7305,
      "TA": 7306,
      "real": 7307,
      "asive": 7308,
      "Ġthor": 7309,
      "omal": 7310,
      "ami": 7311,
      "Ġexclus": 7312,
      "anda": 7313,
      "ghdad": 7314,
      "agon": 7315,
      "ails": 7316,
      "ooking": 7317,
      "century": 7318,
      "Ġdistributed": 7319,
      "Ġfinds": 7320,
      "Ġwrites": 7321,
      "Ġadvis": 7322,
      "Ġvalid": 7323,
      "2013": 7324,
      "Ġwarning": 7325,
      "ĠClimate": 7326,
      "Ġrepresentatives": 7327,
      "hyd": 7328,
      "ĠTrade": 7329,
      "Ġencouraged": 7330,
      "Ġaims": 7331,
      "Ġprincipal": 7332,
      "Ġtumors": 7333,
      "Ġcrucial": 7334,
      "Ġlaser": 7335,
      "SI": 7336,
      "TS": 7337,
      "bial": 7338,
      "bour": 7339,
      "fall": 7340,
      "how": 7341,
      "non": 7342,
      "reated": 7343,
      "ĠBon": 7344,
      "ĠDen": 7345,
      "Ġsup": 7346,
      "Ġenorm": 7347,
      "ĠJack": 7348,
      "ella": 7349,
      "Ġdism": 7350,
      "ĠVar": 7351,
      "itely": 7352,
      "Ġhealthcare": 7353,
      "commun": 7354,
      "Ġreceiving": 7355,
      "swana": 7356,
      "Ġturns": 7357,
      "ĠJohnson": 7358,
      "Ġbusinesses": 7359,
      "Ġfruits": 7360,
      "Ġexecutive": 7361,
      "Ġuniversal": 7362,
      "Ġbehaviors": 7363,
      "Ġrenewable": 7364,
      "Ġappointed": 7365,
      "ĠMPa": 7366,
      "Ġunusual": 7367,
      "ĠFacebook": 7368,
      "42": 7369,
      "See": 7370,
      "rd": 7371,
      "Ġtight": 7372,
      "itivity": 7373,
      "Ġbag": 7374,
      "omed": 7375,
      "ĠSaint": 7376,
      "ĠCy": 7377,
      "iger": 7378,
      "adm": 7379,
      "Ġconj": 7380,
      "ĠHill": 7381,
      "abul": 7382,
      "ĠLib": 7383,
      "ĠOil": 7384,
      "pling": 7385,
      "Ġrose": 7386,
      "Ġunderlying": 7387,
      "amps": 7388,
      "Ġremind": 7389,
      "Ġfeeding": 7390,
      "Ġcorner": 7391,
      "ounter": 7392,
      "ĠZion": 7393,
      "Ġpointed": 7394,
      "Ġheads": 7395,
      "Ġsubstances": 7396,
      "ĠNeu": 7397,
      "ĠServices": 7398,
      "Ġmixed": 7399,
      "Ġdropped": 7400,
      "Ġnitrogen": 7401,
      "Ġhormone": 7402,
      "Ġnarrative": 7403,
      "senic": 7404,
      "CE": 7405,
      "GO": 7406,
      "UR": 7407,
      "When": 7408,
      "then": 7409,
      "hea": 7410,
      "Ġthym": 7411,
      "Ġlists": 7412,
      "Ġnerve": 7413,
      "Ġbeings": 7414,
      "idance": 7415,
      "isted": 7416,
      "Ġvan": 7417,
      "ĠNever": 7418,
      "ĠNaz": 7419,
      "Ġcancers": 7420,
      "Ġshop": 7421,
      "Ġarmed": 7422,
      "Ġteen": 7423,
      "Ġtrained": 7424,
      "Ġrepair": 7425,
      "Ġfever": 7426,
      "ĠColl": 7427,
      "Ġstarts": 7428,
      "Ġlowest": 7429,
      "Ġinfluenced": 7430,
      "Ġessentially": 7431,
      "Ġmaintained": 7432,
      "Ġsettlement": 7433,
      "Ġecological": 7434,
      "Ġinitiative": 7435,
      "Ġpanel": 7436,
      "Ġspectrum": 7437,
      "Ġbehaviour": 7438,
      "Ġarrange": 7439,
      "ĠDaniel": 7440,
      "Ġconfirmed": 7441,
      "?âĢĿ": 7442,
      "TP": 7443,
      "dis": 7444,
      "host": 7445,
      "Â·": 7446,
      "Ġnode": 7447,
      "Ġgro": 7448,
      "ĠSS": 7449,
      "ĠCA": 7450,
      "ĠMain": 7451,
      "Ġheating": 7452,
      "ivered": 7453,
      "ĠJo": 7454,
      "Ġcontents": 7455,
      "Ġdisaster": 7456,
      "ruption": 7457,
      "Ġforming": 7458,
      "Ġrefuge": 7459,
      "Ġcalling": 7460,
      "Ġartists": 7461,
      "Ġtrip": 7462,
      "roduction": 7463,
      "ĠMedia": 7464,
      "Ġterror": 7465,
      "ourage": 7466,
      "ulsion": 7467,
      "Ġimplications": 7468,
      "ĠMichigan": 7469,
      "Ġharmful": 7470,
      "Ġlicens": 7471,
      "Ġdramatic": 7472,
      "Ġscheme": 7473,
      "ĠDivision": 7474,
      "Ġweapons": 7475,
      "Ġvulnerable": 7476,
      "Ġjourney": 7477,
      "Ġtape": 7478,
      "Ġcosm": 7479,
      "Ġboy": 7480,
      "asma": 7481,
      "sts": 7482,
      "ĠSource": 7483,
      "ady": 7484,
      "Ġwheat": 7485,
      "ishment": 7486,
      "Ġsched": 7487,
      "Ġpreserve": 7488,
      "Ġmeasuring": 7489,
      "Ġchoices": 7490,
      "Ġimprovement": 7491,
      "Ġcapture": 7492,
      "Ġmountains": 7493,
      "Ġtissues": 7494,
      "Ġevaluation": 7495,
      "Ġcryst": 7496,
      "ĠOpen": 7497,
      "Ġerrors": 7498,
      "unicipal": 7499,
      "ĠGeorgia": 7500,
      "iary": 7501,
      "pus": 7502,
      "yer": 7503,
      "Ġov": 7504,
      "Ġcaught": 7505,
      "Ġmira": 7506,
      "ĠCub": 7507,
      "elesc": 7508,
      "ĠHaw": 7509,
      "riers": 7510,
      "ĠEqu": 7511,
      "ocent": 7512,
      "ĠLanguage": 7513,
      "Ġring": 7514,
      "Ġnotion": 7515,
      "Ġships": 7516,
      "Ġinferior": 7517,
      "Ġrecover": 7518,
      "Ġaggress": 7519,
      "phone": 7520,
      "Ġrelief": 7521,
      "ĠConvention": 7522,
      "Ġknowing": 7523,
      "ĠSpirit": 7524,
      "ĠCentre": 7525,
      "ĠScot": 7526,
      "Ġcharacterized": 7527,
      "Ġabsence": 7528,
      "Ġtherapies": 7529,
      "Ġirrigation": 7530,
      "Ġasthma": 7531,
      "Ġmothers": 7532,
      "ĠProtection": 7533,
      "ĠAvoid": 7534,
      "Ġevaluate": 7535,
      "Ġcooking": 7536,
      "Ġarchitecture": 7537,
      "Ġlecture": 7538,
      "On": 7539,
      "making": 7540,
      "Ġbiodiversity": 7541,
      "Ġmac": 7542,
      "ĠSund": 7543,
      "iments": 7544,
      "abapt": 7545,
      "ĠDig": 7546,
      "ĠLight": 7547,
      "uster": 7548,
      "action": 7549,
      "plant": 7550,
      "Ġunem": 7551,
      "Ġpartner": 7552,
      "Ġ48": 7553,
      "ĠReference": 7554,
      "Ġsimultane": 7555,
      "Ġartist": 7556,
      "Ġtreating": 7557,
      "Ġproportion": 7558,
      "Ġresearcher": 7559,
      "Ġexamination": 7560,
      "Ġconnections": 7561,
      "Ġasking": 7562,
      "Ġembry": 7563,
      "Ġprinted": 7564,
      "Ġmissing": 7565,
      "Ġpurchase": 7566,
      "Ġmammals": 7567,
      "ĠPolicy": 7568,
      "UT": 7569,
      "ugh": 7570,
      "Ġol": 7571,
      "esides": 7572,
      "Ġblow": 7573,
      "Ġfo": 7574,
      "Ġmouse": 7575,
      "Ġbeat": 7576,
      "sets": 7577,
      "ĠIU": 7578,
      "iva": 7579,
      "ĠGre": 7580,
      "Ġsport": 7581,
      "Ġspaces": 7582,
      "ologic": 7583,
      "Ġraw": 7584,
      "Ġmatch": 7585,
      "Ġprovider": 7586,
      "Ġprotective": 7587,
      "Ġconsumer": 7588,
      "Ġsilver": 7589,
      "Ġexception": 7590,
      "Ġdanger": 7591,
      "Ġcategories": 7592,
      "Ġescape": 7593,
      "ĠBaghdad": 7594,
      "Ġneurons": 7595,
      "DS": 7596,
      "orters": 7597,
      "asm": 7598,
      "ĠAge": 7599,
      "ĠSir": 7600,
      "ĠIre": 7601,
      "Ġstone": 7602,
      "uled": 7603,
      "ĠPract": 7604,
      "ĠDO": 7605,
      "ogether": 7606,
      "soft": 7607,
      "anger": 7608,
      "Ġracial": 7609,
      "ĠYoung": 7610,
      "Ġblocks": 7611,
      "Ġeffectiveness": 7612,
      "Ġdistant": 7613,
      "Ġslave": 7614,
      "Ġfarms": 7615,
      "Ġfacing": 7616,
      "Ġhappy": 7617,
      "Ġdriven": 7618,
      "Ġfunds": 7619,
      "Ġdebt": 7620,
      "Ġliterary": 7621,
      "Ġstopped": 7622,
      "Ġpsychology": 7623,
      "Ġmachines": 7624,
      "Ġcontributed": 7625,
      "Ġlegislation": 7626,
      "Ġcategory": 7627,
      "Ġemphasis": 7628,
      "ĠFurthermore": 7629,
      "Ġrecycling": 7630,
      "ĠBotswana": 7631,
      "84": 7632,
      "But": 7633,
      "from": 7634,
      "wan": 7635,
      "Ġ~": 7636,
      "isd": 7637,
      "Ġfro": 7638,
      "Ġmes": 7639,
      "omp": 7640,
      "Ġlots": 7641,
      "Ġlunch": 7642,
      "ĠSus": 7643,
      "Ġoral": 7644,
      "Ġhero": 7645,
      "essions": 7646,
      "ĠFather": 7647,
      "ĠGall": 7648,
      "ĠLos": 7649,
      "ghan": 7650,
      "Ġjump": 7651,
      "Ġpref": 7652,
      "ĠIndeed": 7653,
      "comp": 7654,
      "Ġ1986": 7655,
      "ĠWarren": 7656,
      "2008": 7657,
      "Ġexamined": 7658,
      "Ġrepresentative": 7659,
      "Ġfeelings": 7660,
      "Ġsunlight": 7661,
      "Ġremoval": 7662,
      "prof": 7663,
      "species": 7664,
      "ĠAND": 7665,
      "ĠIreland": 7666,
      "EO": 7667,
      "aith": 7668,
      "bra": 7669,
      "inates": 7670,
      "Ġfrog": 7671,
      "Ġdates": 7672,
      "Ġdys": 7673,
      "Ġislands": 7674,
      "ĠSon": 7675,
      "Ġstreet": 7676,
      "ulpt": 7677,
      "ĠMic": 7678,
      "ĠRock": 7679,
      "Ġrice": 7680,
      "Ġrank": 7681,
      "Ġplain": 7682,
      "Ġcontribution": 7683,
      "Ġcompare": 7684,
      "phal": 7685,
      "Ġdesire": 7686,
      "Ġexped": 7687,
      "Ġattitude": 7688,
      "ĠIndust": 7689,
      "Ġgluc": 7690,
      "Ġconsidering": 7691,
      "Ġpresentation": 7692,
      "azing": 7693,
      "sylv": 7694,
      "Ġrealize": 7695,
      "Ġbeneficial": 7696,
      "ĠMarine": 7697,
      "Ġfunded": 7698,
      "Ġsettled": 7699,
      "ĠHarvard": 7700,
      "Ġdecreased": 7701,
      "ĠNavy": 7702,
      "ĠMiller": 7703,
      "Ġpoetry": 7704,
      "Ġphrase": 7705,
      "namese": 7706,
      "%)": 7707,
      "92": 7708,
      "AA": 7709,
      "brid": 7710,
      "bird": 7711,
      "mit": 7712,
      "top": 7713,
      "Â®": 7714,
      "Ġ%": 7715,
      "Ġtaste": 7716,
      "Ġpond": 7717,
      "Ġdrain": 7718,
      "olt": 7719,
      "ĠCre": 7720,
      "Ġconclus": 7721,
      "istical": 7722,
      "ĠWed": 7723,
      "rien": 7724,
      "ĠLy": 7725,
      "Ġleaf": 7726,
      "ustain": 7727,
      "ffee": 7728,
      "Ġouter": 7729,
      "Ġroads": 7730,
      "ĠHead": 7731,
      "Ġphosph": 7732,
      "Ġsupplements": 7733,
      "Ġsciences": 7734,
      "Ġexplicit": 7735,
      "Ġdemocracy": 7736,
      "ĠClinical": 7737,
      "including": 7738,
      "Ġprominent": 7739,
      "Ġradical": 7740,
      "Ġsuspect": 7741,
      "ĠServer": 7742,
      "Ġinterpretation": 7743,
      "ĠQuebec": 7744,
      "Ġnutrients": 7745,
      "800": 7746,
      "96": 7747,
      "Ex": 7748,
      "gical": 7749,
      "vin": 7750,
      "Ġ;": 7751,
      "Ġvel": 7752,
      "Ġtor": 7753,
      "Ġwelfare": 7754,
      "ouds": 7755,
      "Ġdiver": 7756,
      "Ġlit": 7757,
      "Ġnodes": 7758,
      "oline": 7759,
      "otype": 7760,
      "amins": 7761,
      "aded": 7762,
      "Ġorgans": 7763,
      "Ġdeeper": 7764,
      "ĠWin": 7765,
      "Ġspray": 7766,
      "Ġbless": 7767,
      "Ġrocks": 7768,
      "obile": 7769,
      "Ġinvention": 7770,
      "ĠIslands": 7771,
      "Ġvisits": 7772,
      "ĠWithout": 7773,
      "Ġdifficulties": 7774,
      "Ġgrounds": 7775,
      "Ġarchae": 7776,
      "Ġtelevision": 7777,
      "Ġinformed": 7778,
      "ĠPennsylv": 7779,
      "Ġsaved": 7780,
      "ĠSecretary": 7781,
      "Ġanxiety": 7782,
      "CP": 7783,
      "bach": 7784,
      "onal": 7785,
      "athered": 7786,
      "Ġcod": 7787,
      "Ġcab": 7788,
      "Ġmg": 7789,
      "Ġmour": 7790,
      "Ġthr": 7791,
      "ĠTenn": 7792,
      "ĠAL": 7793,
      "ĠSing": 7794,
      "imony": 7795,
      "etime": 7796,
      "Ġstead": 7797,
      "ĠMach": 7798,
      "ĠPass": 7799,
      "odox": 7800,
      "abric": 7801,
      "abits": 7802,
      "Ġclock": 7803,
      "ĠChange": 7804,
      "ervous": 7805,
      "ritis": 7806,
      "Ġpoem": 7807,
      "archy": 7808,
      "Ġcooperation": 7809,
      "Ġpresents": 7810,
      "Ġmeteor": 7811,
      "gener": 7812,
      "Ġdirectory": 7813,
      "Ġcharged": 7814,
      "oids": 7815,
      "Ġoccurring": 7816,
      "Ġviewed": 7817,
      "Ġstructural": 7818,
      "Ġassociate": 7819,
      "Ġhappening": 7820,
      "Ġfalling": 7821,
      "ucky": 7822,
      "liest": 7823,
      "ĠVolunteers": 7824,
      "Ġsteel": 7825,
      "Ġvirtually": 7826,
      "Ġempire": 7827,
      "Ġtube": 7828,
      "Ġconstantly": 7829,
      "Ġintelligence": 7830,
      "Ġdivorce": 7831,
      "Ã¦": 7832,
      "Ġcort": 7833,
      "isk": 7834,
      "Ġrely": 7835,
      "ĠCell": 7836,
      "ĠCze": 7837,
      "Ġ120": 7838,
      "Ġsuit": 7839,
      "Ġvoc": 7840,
      "Ġran": 7841,
      "ĠJava": 7842,
      "Ġusual": 7843,
      "ĠYear": 7844,
      "Ġemission": 7845,
      "Ġacknow": 7846,
      "Ġmining": 7847,
      "Ġdirections": 7848,
      "Ġrestore": 7849,
      "Ġfinished": 7850,
      "print": 7851,
      "Ġpreventing": 7852,
      "Ġmoves": 7853,
      "ymes": 7854,
      "ĠConsider": 7855,
      "Ġheavily": 7856,
      "Ġjudges": 7857,
      "Ġvariables": 7858,
      "Ġimplemented": 7859,
      "Ġbrings": 7860,
      "Ġdealing": 7861,
      "Ġautomatically": 7862,
      "Ġbeliefs": 7863,
      "Ġtraditions": 7864,
      "Ġhorizont": 7865,
      "admium": 7866,
      "Med": 7867,
      "RA": 7868,
      "df": 7869,
      "erly": 7870,
      "rooms": 7871,
      "ĠIP": 7872,
      "Ġconce": 7873,
      "ĠPut": 7874,
      "ogy": 7875,
      "apse": 7876,
      "eph": 7877,
      "Ġarray": 7878,
      "ĠView": 7879,
      "Ġsmoke": 7880,
      "Ġoccas": 7881,
      "ĠIndepend": 7882,
      "upiter": 7883,
      "Ġconfirm": 7884,
      "Ġguidance": 7885,
      "Ġdelivered": 7886,
      "Ġfaced": 7887,
      "Ġcopies": 7888,
      "Ġdegrad": 7889,
      "Ġconcrete": 7890,
      "Ġexercises": 7891,
      "Ġsequences": 7892,
      "Ġreveal": 7893,
      "Ġscreening": 7894,
      "Ġelectrons": 7895,
      "ĠLearn": 7896,
      "Ġthermal": 7897,
      "ĠPolitical": 7898,
      "ovenant": 7899,
      "68": 7900,
      "ML": 7901,
      "bu": 7902,
      "feed": 7903,
      "hus": 7904,
      "mod": 7905,
      "night": 7906,
      "sue": 7907,
      "Ġcub": 7908,
      "Ġbath": 7909,
      "Ġhat": 7910,
      "Ġhole": 7911,
      "Ġstake": 7912,
      "amination": 7913,
      "istor": 7914,
      "ĠHay": 7915,
      "Ġrational": 7916,
      "ĠYes": 7917,
      "Ġblank": 7918,
      "Ġaccord": 7919,
      "Ġanywhere": 7920,
      "ĠResp": 7921,
      "Ġtemporary": 7922,
      "Ġcalories": 7923,
      "Ġexisted": 7924,
      "Ġpackage": 7925,
      "Ġorders": 7926,
      "Ġaccompan": 7927,
      "ĠCambridge": 7928,
      "Ġgalaxy": 7929,
      "Ġrevenue": 7930,
      "usalem": 7931,
      "91": 7932,
      "93": 7933,
      "but": 7934,
      "chen": 7935,
      "iop": 7936,
      "ois": 7937,
      "Ġfellow": 7938,
      "Ġment": 7939,
      "Ġhosp": 7940,
      "Ġreaching": 7941,
      "ilation": 7942,
      "Ġnervous": 7943,
      "otal": 7944,
      "Ġstores": 7945,
      "ulus": 7946,
      "usiness": 7947,
      "ĠDrug": 7948,
      "achers": 7949,
      "Ġshock": 7950,
      "ĠOl": 7951,
      "Ġplenty": 7952,
      "Ġ1920": 7953,
      "aked": 7954,
      "akistan": 7955,
      "Ġimpair": 7956,
      "Ġpreval": 7957,
      "ĠVill": 7958,
      "Ġnewly": 7959,
      "rowing": 7960,
      "Ġtechnological": 7961,
      "Ġgravel": 7962,
      "class": 7963,
      "Ġdemands": 7964,
      "azon": 7965,
      "Ġ1989": 7966,
      "ĠRepresent": 7967,
      "Ġstatistics": 7968,
      "Ġaddressed": 7969,
      "Ġversions": 7970,
      "Ġthreats": 7971,
      "ĠAgain": 7972,
      "Ġcolonial": 7973,
      "Ġrecommendations": 7974,
      "Ġmathematical": 7975,
      "Ġcereb": 7976,
      "Ġsplit": 7977,
      "Ġdiscipline": 7978,
      "ĠPennsylvania": 7979,
      "Sp": 7980,
      "just": 7981,
      "Ġahead": 7982,
      "Ġcats": 7983,
      "orith": 7984,
      "Ġmales": 7985,
      "Ġtooth": 7986,
      "Ġthyroid": 7987,
      "ĠTable": 7988,
      "olar": 7989,
      "sex": 7990,
      "idal": 7991,
      "adow": 7992,
      "ĠPot": 7993,
      "thodox": 7994,
      "ums": 7995,
      "ĠLittle": 7996,
      "outheast": 7997,
      "Ġunw": 7998,
      "Ġevil": 7999,
      "Ġ34": 8000,
      "Ġoffering": 8001,
      "Ġhumming": 8002,
      "Ġdefault": 8003,
      "Ġsolve": 8004,
      "Ġhandling": 8005,
      "Ġadvances": 8006,
      "Ġstronger": 8007,
      "Ġpsychological": 8008,
      "ĠVietnamese": 8009,
      "Ġangle": 8010,
      "ĠJustice": 8011,
      "Ġcoordinate": 8012,
      "ĠCommonwealth": 8013,
      "Ġminority": 8014,
      "Ġunlikely": 8015,
      "Ġnucleus": 8016,
      "Ġperceived": 8017,
      "Ġinertial": 8018,
      "58": 8019,
      "FC": 8020,
      "gence": 8021,
      "iw": 8022,
      "Ġpione": 8023,
      "ouri": 8024,
      "asant": 8025,
      "Ġrect": 8026,
      "ĠTom": 8027,
      "Ġstick": 8028,
      "ĠMid": 8029,
      "ĠPerson": 8030,
      "ĠWall": 8031,
      "ĠLater": 8032,
      "ĠJupiter": 8033,
      "Ġdisrupt": 8034,
      "Ġproven": 8035,
      "Ġourselves": 8036,
      "2011": 8037,
      "ĠAdam": 8038,
      "ĠMedic": 8039,
      "Ġplayers": 8040,
      "Ġinitially": 8041,
      "Ġcrimes": 8042,
      "Ġcutting": 8043,
      "ĠAppro": 8044,
      "Ġaudience": 8045,
      "ĠMajor": 8046,
      "Ġgradually": 8047,
      "Ġphysicians": 8048,
      "ĠHistorical": 8049,
      "Ġroughly": 8050,
      "ĠVitamin": 8051,
      "ĠCzech": 8052,
      "Ad": 8053,
      "And": 8054,
      "Gen": 8055,
      "PS": 8056,
      "RS": 8057,
      "Ã¤": 8058,
      "Ġ]": 8059,
      "Ġcash": 8060,
      "icity": 8061,
      "enter": 8062,
      "Ġgrid": 8063,
      "uts": 8064,
      "ĠCrit": 8065,
      "child": 8066,
      "adder": 8067,
      "ĠBru": 8068,
      "ĠBiology": 8069,
      "istant": 8070,
      "ĠHum": 8071,
      "emet": 8072,
      "ĠRay": 8073,
      "ĠNear": 8074,
      "Ġranging": 8075,
      "Ġspr": 8076,
      "Ġspoke": 8077,
      "allow": 8078,
      "asts": 8079,
      "Ġcommands": 8080,
      "Ġinfant": 8081,
      "Ġquiet": 8082,
      "Ġ33": 8083,
      "Ġraising": 8084,
      "Ġrelax": 8085,
      "issure": 8086,
      "Ġspecified": 8087,
      "oves": 8088,
      "Ġdetected": 8089,
      "Ġdetermination": 8090,
      "Ġwindows": 8091,
      "ĠGovernor": 8092,
      "Ġhydro": 8093,
      "Ġmalaria": 8094,
      "Ġlungs": 8095,
      "Ġjurisd": 8096,
      "Ġgalaxies": 8097,
      "66": 8098,
      "foot": 8099,
      "yles": 8100,
      "Ġcensus": 8101,
      "iture": 8102,
      "alin": 8103,
      "Ġinact": 8104,
      "Ġdensity": 8105,
      "omers": 8106,
      "step": 8107,
      "thritis": 8108,
      "ĠDom": 8109,
      "Ġcomprom": 8110,
      "ĠStation": 8111,
      "Ġroots": 8112,
      "Ġtransp": 8113,
      "Ġentering": 8114,
      "Ġcomplement": 8115,
      "Ġconfig": 8116,
      "2010": 8117,
      "Ġ1982": 8118,
      "Ġ1979": 8119,
      "Ġconsideration": 8120,
      "Ġengineers": 8121,
      "Ġcontainers": 8122,
      "inoza": 8123,
      "Ġsuscept": 8124,
      "Ġreflected": 8125,
      "ĠLawrence": 8126,
      "ĠParkinson": 8127,
      "Ġsustainability": 8128,
      "Ġuncertain": 8129,
      "Ġaimed": 8130,
      "ĠTestament": 8131,
      "Ġinnovation": 8132,
      "Ġpilot": 8133,
      "ĠFollowing": 8134,
      "ĠAgriculture": 8135,
      "Ġstreets": 8136,
      "made": 8137,
      "ye": 8138,
      "Ġ)": 8139,
      "Ġid": 8140,
      "anz": 8141,
      "Ġdance": 8142,
      "Ġlob": 8143,
      "Ġnom": 8144,
      "ĠMond": 8145,
      "Ġconvey": 8146,
      "Ġorbit": 8147,
      "ĠHaving": 8148,
      "Ġhence": 8149,
      "Ġvac": 8150,
      "ĠInvest": 8151,
      "Ġdisability": 8152,
      "ipher": 8153,
      "Ġcompound": 8154,
      "Ġevolved": 8155,
      "Ġinfants": 8156,
      "Ġthanks": 8157,
      "ailed": 8158,
      "Ġtwelve": 8159,
      "Ġobesity": 8160,
      "Ġcoverage": 8161,
      "Ġsculpt": 8162,
      "Ġflash": 8163,
      "Ġparticle": 8164,
      "Ġentit": 8165,
      "ĠIndones": 8166,
      "Ġdescript": 8167,
      "Ġposted": 8168,
      "2004": 8169,
      "ashion": 8170,
      "Ġfunctional": 8171,
      "Ġswitch": 8172,
      "Ġlosses": 8173,
      "Ġprivile": 8174,
      "Ġvictory": 8175,
      "ĠArea": 8176,
      "Ġvotes": 8177,
      "Ġcontributions": 8178,
      "Ġimagine": 8179,
      "ĠJerusalem": 8180,
      "Ġinhabit": 8181,
      "Ġdynamic": 8182,
      "Ġclothing": 8183,
      "ĠJacob": 8184,
      "ĠSunday": 8185,
      "emetery": 8186,
      "gers": 8187,
      "Ġpair": 8188,
      "imm": 8189,
      "ceans": 8190,
      "ĠCT": 8191,
      "otton": 8192,
      "iratory": 8193,
      "Ġasc": 8194,
      "ĠPur": 8195,
      "ĠPyth": 8196,
      "ifer": 8197,
      "ĠDesc": 8198,
      "ĠFred": 8199,
      "ĠField": 8200,
      "ĠEagle": 8201,
      "ĠStart": 8202,
      "Ġpharm": 8203,
      "Ġdistinction": 8204,
      "ĠNewton": 8205,
      "Ġdesigns": 8206,
      "Ġguess": 8207,
      "Ġperforming": 8208,
      "Ġprotecting": 8209,
      "Ġcolonies": 8210,
      "Ġhabitats": 8211,
      "Ġlifest": 8212,
      "Ġemotions": 8213,
      "Ġcustomers": 8214,
      "Ġinspired": 8215,
      "Ġcollaboration": 8216,
      "Ġorientation": 8217,
      "Ġenormous": 8218,
      "52": 8219,
      "Cl": 8220,
      "Pro": 8221,
      "mes": 8222,
      "nov": 8223,
      "power": 8224,
      "rin": 8225,
      "Ġtables": 8226,
      "orne": 8227,
      "ĠTry": 8228,
      "Ġbears": 8229,
      "Ġgases": 8230,
      "Ġstations": 8231,
      "Ġstuff": 8232,
      "amber": 8233,
      "ĠFair": 8234,
      "emb": 8235,
      "ĠNon": 8236,
      "Ġspons": 8237,
      "ĠJeff": 8238,
      "Ġimaging": 8239,
      "duate": 8240,
      "Ġtheme": 8241,
      "Ġcoffee": 8242,
      "ĠAnabapt": 8243,
      "hesis": 8244,
      "Ġhumidity": 8245,
      "Ġlearner": 8246,
      "Ġminerals": 8247,
      "ĠSpain": 8248,
      "ĠIndex": 8249,
      "Ġboost": 8250,
      "Ġguard": 8251,
      "plete": 8252,
      "ĠZeal": 8253,
      "Ġobservation": 8254,
      "Ġcirculation": 8255,
      "Ġteams": 8256,
      "Ġfalls": 8257,
      "Ġarguments": 8258,
      "Ġaffecting": 8259,
      "Ġdominant": 8260,
      "Ġcomplications": 8261,
      "ĠArticle": 8262,
      "Ġlifetime": 8263,
      "ĠSystems": 8264,
      "Ġtranslated": 8265,
      "ĠBetween": 8266,
      "Ġphotographs": 8267,
      "62": 8268,
      "CA": 8269,
      "ao": 8270,
      "eh": 8271,
      "east": 8272,
      "green": 8273,
      "press": 8274,
      "inch": 8275,
      "icut": 8276,
      "Ġdict": 8277,
      "utrition": 8278,
      "rav": 8279,
      "ĠCP": 8280,
      "Ġassemb": 8281,
      "ĠPoint": 8282,
      "quar": 8283,
      "ocated": 8284,
      "Ġspending": 8285,
      "Ġworship": 8286,
      "Ġcompounds": 8287,
      "ĠStill": 8288,
      "Ġuncom": 8289,
      "ĠChief": 8290,
      "Ġmaybe": 8291,
      "Ġrecon": 8292,
      "Ġroles": 8293,
      "Ġexport": 8294,
      "Ġ43": 8295,
      "Ġpron": 8296,
      "Ġsmart": 8297,
      "Ġinsulin": 8298,
      "ĠSpinoza": 8299,
      "Ġserving": 8300,
      "mann": 8301,
      "Ġpressures": 8302,
      "ĠChristmas": 8303,
      "Ġvolcan": 8304,
      "Ġmeasurement": 8305,
      "Ġbringing": 8306,
      "Ġqualities": 8307,
      "zyme": 8308,
      "ĠAbraham": 8309,
      "%.": 8310,
      "61": 8311,
      "67": 8312,
      "=\"": 8313,
      "Brien": 8314,
      "HS": 8315,
      "pret": 8316,
      "yd": 8317,
      "Ġsul": 8318,
      "eness": 8319,
      "Ġcattle": 8320,
      "Ġcovenant": 8321,
      "Ġbread": 8322,
      "rove": 8323,
      "Ġthirty": 8324,
      "Ġlymph": 8325,
      "Ġgathered": 8326,
      "urd": 8327,
      "iration": 8328,
      "Ġprosec": 8329,
      "Ġitem": 8330,
      "Ġhepat": 8331,
      "ostic": 8332,
      "izer": 8333,
      "Ġjury": 8334,
      "Ġinfect": 8335,
      "ĠUnlike": 8336,
      "Ġempt": 8337,
      "Ġskill": 8338,
      "stitutes": 8339,
      "Ġcontinuing": 8340,
      "Ġmarks": 8341,
      "Ġengines": 8342,
      "Ġdevast": 8343,
      "Ġcheap": 8344,
      "2006": 8345,
      "Ġconcerning": 8346,
      "Ġimprovements": 8347,
      "Ġverb": 8348,
      "Ġrespectively": 8349,
      "Ġreviewed": 8350,
      "Ġsteam": 8351,
      "ENT": 8352,
      "Ġgraduate": 8353,
      "ĠSpecies": 8354,
      "Ġvirtual": 8355,
      "Ġconvin": 8356,
      "Ġbeauty": 8357,
      "Ġpreferred": 8358,
      "Ġsubsid": 8359,
      "Ġingredients": 8360,
      "Ġhypothesis": 8361,
      "Ġglucose": 8362,
      "81": 8363,
      "cin": 8364,
      "ko": 8365,
      "oom": 8366,
      "pes": 8367,
      "tw": 8368,
      "eries": 8369,
      "Ġsod": 8370,
      "Ġsitting": 8371,
      "encing": 8372,
      "Ġcas": 8373,
      "isdom": 8374,
      "Ġbatt": 8375,
      "Ġtox": 8376,
      "stic": 8377,
      "ĠMax": 8378,
      "aying": 8379,
      "Ġ1000": 8380,
      "ĠEU": 8381,
      "ĠJul": 8382,
      "ĠThird": 8383,
      "Ġunions": 8384,
      "Ġrecording": 8385,
      "Ġ44": 8386,
      "Ġregister": 8387,
      "Ġearliest": 8388,
      "Ġevening": 8389,
      "Ġvariation": 8390,
      "...]": 8391,
      "Ġeleph": 8392,
      "Ġpromise": 8393,
      "Ġprobability": 8394,
      "Ġdomain": 8395,
      "Ġdietary": 8396,
      "Ġsettings": 8397,
      "Ġviolent": 8398,
      "ĠOften": 8399,
      "Ġboundaries": 8400,
      "Ġventric": 8401,
      "Ġcorresponding": 8402,
      "ineteenth": 8403,
      "ĠConnecticut": 8404,
      "09": 8405,
      "87": 8406,
      "EE": 8407,
      "upt": 8408,
      "Ġty": 8409,
      "Ġtag": 8410,
      "Ġsale": 8411,
      "Ġcroc": 8412,
      "Ġpy": 8413,
      "anas": 8414,
      "role": 8415,
      "Ġholid": 8416,
      "ĠMA": 8417,
      "ĠMaterial": 8418,
      "Ġ130": 8419,
      "ĠPC": 8420,
      "ĠPs": 8421,
      "ĠPakistan": 8422,
      "Ġalive": 8423,
      "ĠUr": 8424,
      "eping": 8425,
      "Ġsurre": 8426,
      "Ġformula": 8427,
      "Ġreferences": 8428,
      "Ġbuff": 8429,
      "Ġidentification": 8430,
      "Ġprofit": 8431,
      "ĠAfghan": 8432,
      "Ġ1983": 8433,
      "Ġmagazine": 8434,
      "ursday": 8435,
      "Ġregardless": 8436,
      "Ġvideos": 8437,
      "Ġmixture": 8438,
      "Ġpriority": 8439,
      "Ġaltitude": 8440,
      "Ġstruck": 8441,
      "Ġestablishment": 8442,
      "Ġtribe": 8443,
      "haust": 8444,
      "Ġopinions": 8445,
      "Ġmerch": 8446,
      "Ġhazardous": 8447,
      "oglob": 8448,
      "lah": 8449,
      "Ġ`": 8450,
      "requ": 8451,
      "Ġcm": 8452,
      "Ġpor": 8453,
      "Ġpace": 8454,
      "Ġfur": 8455,
      "Ġfabric": 8456,
      "Ġinqu": 8457,
      "Ġmold": 8458,
      "omatic": 8459,
      "Ġnice": 8460,
      "ĠSqu": 8461,
      "ĠMIT": 8462,
      "ĠBal": 8463,
      "ĠDate": 8464,
      "acent": 8465,
      "Ġspat": 8466,
      "ĠIns": 8467,
      "ĠOS": 8468,
      "Ġworst": 8469,
      "aret": 8470,
      "Ġmeals": 8471,
      "Ġagent": 8472,
      "Ġgenome": 8473,
      "Ġindirect": 8474,
      "Ġblind": 8475,
      "ovak": 8476,
      "ovascular": 8477,
      "Ġacute": 8478,
      "adequ": 8479,
      "Ġrefused": 8480,
      "Ġinstances": 8481,
      "Ġ600": 8482,
      "Ġgray": 8483,
      "ĠPhot": 8484,
      "Ġrestric": 8485,
      "Ġoldest": 8486,
      "Ġloan": 8487,
      "ĠPlant": 8488,
      "ployed": 8489,
      "Ġfunctioning": 8490,
      "ĠAssess": 8491,
      "Ġworksh": 8492,
      "ĠCarl": 8493,
      "ĠContact": 8494,
      "Ġgeomet": 8495,
      "ĠKey": 8496,
      "Ġvoting": 8497,
      "Ġoccupied": 8498,
      "Ġtranslation": 8499,
      "Ġwearing": 8500,
      "Ġinvolvement": 8501,
      "Ġdeposits": 8502,
      "Ġduty": 8503,
      "Ġsatisf": 8504,
      "ĠIdent": 8505,
      "Ġalgorith": 8506,
      "Ġantibiotics": 8507,
      "Ġtheoretical": 8508,
      "Ġearthquake": 8509,
      "Ġthorough": 8510,
      "97": 8511,
      "bel": 8512,
      "cope": 8513,
      "date": 8514,
      "gic": 8515,
      "Ġwars": 8516,
      "Ġmir": 8517,
      "Ġlosing": 8518,
      "iders": 8519,
      "ĠCode": 8520,
      "igo": 8521,
      "mental": 8522,
      "ĠHop": 8523,
      "ĠLin": 8524,
      "ĠKansas": 8525,
      "angel": 8526,
      "Ġindigenous": 8527,
      "iously": 8528,
      "Ġattended": 8529,
      "Ġoperated": 8530,
      "ĠCentury": 8531,
      "Ġavailability": 8532,
      "Ġflows": 8533,
      "Ġsensitivity": 8534,
      "Ġemerging": 8535,
      "Ġstreams": 8536,
      "Ġquantum": 8537,
      "Ġadmitted": 8538,
      "ĠCastleton": 8539,
      "ĠMissouri": 8540,
      "Ġlibert": 8541,
      "Ġfifth": 8542,
      "Ġdeficiency": 8543,
      "Ġswimming": 8544,
      "Ġchicken": 8545,
      "ĠZealand": 8546,
      "07": 8547,
      "83": 8548,
      "DE": 8549,
      "PV": 8550,
      "fe": 8551,
      "lights": 8552,
      "sis": 8553,
      "Ġtanks": 8554,
      "only": 8555,
      "ati": 8556,
      "Ġfought": 8557,
      "urning": 8558,
      "Ġprosp": 8559,
      "ĠWol": 8560,
      "rive": 8561,
      "aints": 8562,
      "ĠLinks": 8563,
      "Ġenz": 8564,
      "ecess": 8565,
      "Ġallergy": 8566,
      "ologically": 8567,
      "Ġsovere": 8568,
      "Ġgenetics": 8569,
      "Ġdesired": 8570,
      "atively": 8571,
      "ĠHeart": 8572,
      "ieth": 8573,
      "ĠAlaska": 8574,
      "Ġcounties": 8575,
      "Ġextension": 8576,
      "Ġenthus": 8577,
      "Ġeveryday": 8578,
      "Ġreporting": 8579,
      "Ġpersonnel": 8580,
      "Ġcaps": 8581,
      "Ġparad": 8582,
      "Ġparliament": 8583,
      "untary": 8584,
      "ĠWithin": 8585,
      "Ġcement": 8586,
      "Ġinjured": 8587,
      "Ġutility": 8588,
      "Ġattempted": 8589,
      "ĠArchives": 8590,
      "Ġwait": 8591,
      "Ġacquired": 8592,
      "Ġbranches": 8593,
      "Ġexcessive": 8594,
      "Ġconversion": 8595,
      "Ġjuvenile": 8596,
      "Ġchannel": 8597,
      "otherapy": 8598,
      "abulary": 8599,
      ".),": 8600,
      "51": 8601,
      "To": 8602,
      "eut": 8603,
      "sub": 8604,
      "ĠÎ": 8605,
      "onia": 8606,
      "aton": 8607,
      "Ġcul": 8608,
      "arks": 8609,
      "Ġmine": 8610,
      "ĠSearch": 8611,
      "ĠMoon": 8612,
      "ĠPope": 8613,
      "Ġanemia": 8614,
      "terol": 8615,
      "ĠHor": 8616,
      "ĠEmer": 8617,
      "ĠNation": 8618,
      "Ġshore": 8619,
      "actic": 8620,
      "agan": 8621,
      "Ġadvent": 8622,
      "Ġincident": 8623,
      "Ġreserv": 8624,
      "ĠStan": 8625,
      "Ġpartly": 8626,
      "othy": 8627,
      "Ġsubspecies": 8628,
      "Ġsmoking": 8629,
      "Ġmoderate": 8630,
      "Ġinstant": 8631,
      "Ġfactory": 8632,
      "ĠIsa": 8633,
      "Ġaffairs": 8634,
      "Ġprogramming": 8635,
      "Ġannually": 8636,
      "ltry": 8637,
      "ĠPrime": 8638,
      "Ġlabour": 8639,
      "Ġviruses": 8640,
      "Ġfavorite": 8641,
      "Ġpartnership": 8642,
      "isphere": 8643,
      "Ġtrigger": 8644,
      "Ġapparently": 8645,
      "Ġregistered": 8646,
      "Ġsucceeded": 8647,
      "Ġmortality": 8648,
      "ĠAdditionally": 8649,
      "Ġmetabol": 8650,
      "Ġentitled": 8651,
      "Ġsales": 8652,
      "Ġflying": 8653,
      "Ġfiber": 8654,
      "Ġdoses": 8655,
      "Ġhunt": 8656,
      "Ġhabits": 8657,
      "ila": 8658,
      "ilateral": 8659,
      "ĠTay": 8660,
      "Ġgast": 8661,
      "ĠCreek": 8662,
      "ĠHig": 8663,
      "ĠHun": 8664,
      "ĠDue": 8665,
      "ĠGM": 8666,
      "Ġchart": 8667,
      "ogs": 8668,
      "Ġshoot": 8669,
      "Ġabd": 8670,
      "asty": 8671,
      "Ġarsenic": 8672,
      "Ġactively": 8673,
      "Ġflour": 8674,
      "Ġreader": 8675,
      "Ġobjective": 8676,
      "Ġobser": 8677,
      "Ġhardware": 8678,
      "Ġargued": 8679,
      "Ġlogic": 8680,
      "Ġpollut": 8681,
      "Ġstrengthen": 8682,
      "Ġepit": 8683,
      "olesterol": 8684,
      "Ġarrival": 8685,
      "Ġconvert": 8686,
      "Ġuniversities": 8687,
      "Ġeliminate": 8688,
      "Ġconstitutional": 8689,
      "Ġneighborhood": 8690,
      "Ġoccasionally": 8691,
      "ĠConstant": 8692,
      "Ġveloc": 8693,
      "By": 8694,
      "],": 8695,
      "gender": 8696,
      "vation": 8697,
      "essee": 8698,
      "orr": 8699,
      "Ġbridge": 8700,
      "Ġrent": 8701,
      "Ġerect": 8702,
      "oli": 8703,
      "rays": 8704,
      "ĠCirc": 8705,
      "adic": 8706,
      "ĠBattle": 8707,
      "Ġexhaust": 8708,
      "ĠDC": 8709,
      "ĠRNA": 8710,
      "ĠNO": 8711,
      "ĠNorm": 8712,
      "pled": 8713,
      "Ġwheel": 8714,
      "Ġmanager": 8715,
      "Ġunp": 8716,
      "iano": 8717,
      "onsin": 8718,
      "forest": 8719,
      "ĠAlcohol": 8720,
      "Ġpatch": 8721,
      "Ġauton": 8722,
      "Ġendangered": 8723,
      "Ġ85": 8724,
      "Ġserves": 8725,
      "Ġbasically": 8726,
      "Ġdetermining": 8727,
      "ĠScript": 8728,
      "Ġargues": 8729,
      "Ġcopper": 8730,
      "Ġversus": 8731,
      "Ġpermit": 8732,
      "Ġirre": 8733,
      "Ġoxid": 8734,
      "Ġalternatives": 8735,
      "Ġtransmitted": 8736,
      "Ġbullying": 8737,
      "ĠMorris": 8738,
      "Ġadapted": 8739,
      "Ġassistant": 8740,
      "Ġtrends": 8741,
      "ĠDarwin": 8742,
      "ĠJonah": 8743,
      "ĠUtah": 8744,
      "Ġconclusions": 8745,
      ".).": 8746,
      "mble": 8747,
      "sm": 8748,
      "writ": 8749,
      "zz": 8750,
      "Ġsoph": 8751,
      "Ġfashion": 8752,
      "Ġmature": 8753,
      "Ġdies": 8754,
      "Ġreaches": 8755,
      "Ġbees": 8756,
      "ĠSleep": 8757,
      "Ġstood": 8758,
      "ĠMoses": 8759,
      "Ġ(âĢľ": 8760,
      "ĠBell": 8761,
      "Ġdeer": 8762,
      "acts": 8763,
      "Ġintensity": 8764,
      "Ġincent": 8765,
      "Ġcompens": 8766,
      "Ġmanual": 8767,
      "ube": 8768,
      "lected": 8769,
      "Ġregulation": 8770,
      "Ġprocessed": 8771,
      "Ġ800": 8772,
      "ĠLeon": 8773,
      "Ġmusical": 8774,
      "Ġ1985": 8775,
      "2007": 8776,
      "isconsin": 8777,
      "Ġ1975": 8778,
      "being": 8779,
      "ĠMaria": 8780,
      "Ġlearners": 8781,
      "Ġdipl": 8782,
      "Ġdivine": 8783,
      "Ġmaintaining": 8784,
      "Ġpermitted": 8785,
      "Ġfarming": 8786,
      "Ġembra": 8787,
      "Ġwaiting": 8788,
      "itzer": 8789,
      "ĠProvince": 8790,
      "ĠPhysical": 8791,
      "Ġliberal": 8792,
      "Ġsubmitted": 8793,
      "Ġreplacement": 8794,
      "Ġallergies": 8795,
      "ĠSafety": 8796,
      "ĠIrish": 8797,
      "Ġparameters": 8798,
      "Ġbutterf": 8799,
      "300": 8800,
      "EF": 8801,
      "group": 8802,
      "grams": 8803,
      "iac": 8804,
      "range": 8805,
      "vi": 8806,
      "Ġic": 8807,
      "onym": 8808,
      "Ġpill": 8809,
      "ĠTre": 8810,
      "Ġbell": 8811,
      "amine": 8812,
      "ĠHaz": 8813,
      "ĠDDT": 8814,
      "ested": 8815,
      "Ġvig": 8816,
      "Ġchap": 8817,
      "ĠOcc": 8818,
      "Ġadverse": 8819,
      "apor": 8820,
      "endment": 8821,
      "Ġclient": 8822,
      "Ġclouds": 8823,
      "ieve": 8824,
      "Ġtrafficking": 8825,
      "text": 8826,
      "Ġdevelopments": 8827,
      "Ġdeck": 8828,
      "Ġprime": 8829,
      "ĠProper": 8830,
      "Ġminister": 8831,
      "Ġtemple": 8832,
      "Ġrestoration": 8833,
      "Ġlights": 8834,
      "Ġpursu": 8835,
      "incial": 8836,
      "Ġ1984": 8837,
      "riday": 8838,
      "Ġobserve": 8839,
      "rels": 8840,
      "apping": 8841,
      "Ġcharacteristic": 8842,
      "Ġsentences": 8843,
      "Ġmagist": 8844,
      "shaped": 8845,
      "ĠAntar": 8846,
      "ĠIncre": 8847,
      "ĠCuriosity": 8848,
      "Ġinvestigate": 8849,
      "III": 8850,
      "Ġphilosophical": 8851,
      "Ġweakness": 8852,
      "Ġhopes": 8853,
      "Ġdistinguished": 8854,
      "Ġminimize": 8855,
      "ĠWikipedia": 8856,
      "ĠMonday": 8857,
      "59": 8858,
      "ait": 8859,
      "eath": 8860,
      "iological": 8861,
      "Ġton": 8862,
      "Ġbull": 8863,
      "Ġfuels": 8864,
      "Ġmunicipal": 8865,
      "icts": 8866,
      "ctor": 8867,
      "Ġreign": 8868,
      "ĠTy": 8869,
      "ĠType": 8870,
      "Ġlibr": 8871,
      "uther": 8872,
      "Ġforg": 8873,
      "Ġstability": 8874,
      "ĠFar": 8875,
      "Ġven": 8876,
      "ĠNum": 8877,
      "ĠNeg": 8878,
      "ivest": 8879,
      "Ġsees": 8880,
      "Ġenables": 8881,
      "Ġworry": 8882,
      "enda": 8883,
      "ĠStalin": 8884,
      "Ġarise": 8885,
      "Ġmeal": 8886,
      "Ġapplies": 8887,
      "Ġrac": 8888,
      "Ġacting": 8889,
      "issance": 8890,
      "Ġpool": 8891,
      "awa": 8892,
      "Ġresemb": 8893,
      "icked": 8894,
      "Ġlock": 8895,
      "Ġminimal": 8896,
      "Ġelectro": 8897,
      "Ġconfidence": 8898,
      "Ġdesignated": 8899,
      "ĠExec": 8900,
      "Ġdevoted": 8901,
      "Ġbeneath": 8902,
      "Ġcombine": 8903,
      "ungus": 8904,
      "bean": 8905,
      "Ġminds": 8906,
      "mediate": 8907,
      "Ġfluor": 8908,
      "Ġcolony": 8909,
      "ĠChristianity": 8910,
      "Ġhomosex": 8911,
      "Ġreproductive": 8912,
      "Ġneurolog": 8913,
      "Ġbrothers": 8914,
      "Ġsongs": 8915,
      "ĠWhether": 8916,
      "Ġdiameter": 8917,
      "ĠScotland": 8918,
      "ĠTennessee": 8919,
      "Ġhospitals": 8920,
      "roleum": 8921,
      "Se": 8922,
      "after": 8923,
      "ba": 8924,
      "cor": 8925,
      "Ġsons": 8926,
      "Ġtom": 8927,
      "lete": 8928,
      "Ġreef": 8929,
      "Ġreverse": 8930,
      "ĠSex": 8931,
      "igate": 8932,
      "ĠMur": 8933,
      "ĠMap": 8934,
      "ĠPH": 8935,
      "ifice": 8936,
      "ĠBow": 8937,
      "ĠWisconsin": 8938,
      "Ġcomet": 8939,
      "Ġhealing": 8940,
      "ĠFish": 8941,
      "ĠFront": 8942,
      "Ġpert": 8943,
      "rene": 8944,
      "Ġprovisions": 8945,
      "Ġoffices": 8946,
      "Ġpubl": 8947,
      "Ġlegit": 8948,
      "Ġpropag": 8949,
      "Ġfreely": 8950,
      "ĠTeacher": 8951,
      "Ġ1973": 8952,
      "Ġcircuit": 8953,
      "Ġcampus": 8954,
      "Ġvitamins": 8955,
      "hyl": 8956,
      "Ġjudgment": 8957,
      "ĠEdward": 8958,
      "ĠInteg": 8959,
      "ĠSmall": 8960,
      "Ġfeedback": 8961,
      "Ġhousing": 8962,
      "Ġadvantages": 8963,
      "Ġpalm": 8964,
      "Ġnewspapers": 8965,
      "Ġkilometers": 8966,
      "ĠMovement": 8967,
      "Ġaggressive": 8968,
      ".âĢĻ": 8969,
      "IR": 8970,
      "bat": 8971,
      "kind": 8972,
      "oard": 8973,
      "pdf": 8974,
      "Ġoceans": 8975,
      "Ġcadmium": 8976,
      "itual": 8977,
      "Ġpup": 8978,
      "Ġfet": 8979,
      "icular": 8980,
      "Ġhall": 8981,
      "Ġthroat": 8982,
      "ĠSO": 8983,
      "ĠCensus": 8984,
      "ĠTheory": 8985,
      "Ġpros": 8986,
      "ĠFil": 8987,
      "ĠLocal": 8988,
      "ĠThursday": 8989,
      "Ġclin": 8990,
      "Ġsoy": 8991,
      "Ġrecru": 8992,
      "Ġreconst": 8993,
      "teenth": 8994,
      "Ġwouldn": 8995,
      "ĠUnivers": 8996,
      "Ġassert": 8997,
      "ĠAnalysis": 8998,
      "ictions": 8999,
      "chnology": 9000,
      "Ġdetection": 9001,
      "ometer": 9002,
      "Ġinsight": 9003,
      "Ġexplosion": 9004,
      "coming": 9005,
      "Ġlanding": 9006,
      "atories": 9007,
      "Ġposts": 9008,
      "Ġ1972": 9009,
      "Ġdescribing": 9010,
      "Ġharder": 9011,
      "Ġchemistry": 9012,
      "Ġrequirement": 9013,
      "regular": 9014,
      "Ġurine": 9015,
      "Ġheaven": 9016,
      "Ġcitizen": 9017,
      "Ġbroadcast": 9018,
      "Ġevolutionary": 9019,
      "ĠProtocol": 9020,
      "ĠEvolution": 9021,
      "ĠCulture": 9022,
      "ĠMicrosoft": 9023,
      "IF": 9024,
      "bian": 9025,
      "burn": 9026,
      "mm": 9027,
      "ĠTV": 9028,
      "Ġloved": 9029,
      "Ġgate": 9030,
      "rared": 9031,
      "ĠCra": 9032,
      "ĠCorn": 9033,
      "aming": 9034,
      "Ġprol": 9035,
      "ĠFBI": 9036,
      "ĠNic": 9037,
      "Ġsevent": 9038,
      "ĠLarge": 9039,
      "aved": 9040,
      "Ġinfin": 9041,
      "Ġtraits": 9042,
      "Ġoverse": 9043,
      "ĠHoward": 9044,
      "Ġ95": 9045,
      "Ġreduces": 9046,
      "Ġclassical": 9047,
      "Ġkeeps": 9048,
      "Ġfaces": 9049,
      "ennium": 9050,
      "Ġmultip": 9051,
      "Ġdrives": 9052,
      "ĠAmazon": 9053,
      "Ġcontainer": 9054,
      "Ġconsisting": 9055,
      "Ġidentifying": 9056,
      "Ġdenied": 9057,
      "Ġultimate": 9058,
      "Ġmutations": 9059,
      "Ġgardens": 9060,
      "ĠRelig": 9061,
      "Ġtimber": 9062,
      "Ġwatching": 9063,
      "Ġscholar": 9064,
      "Ġsuddenly": 9065,
      "Ġremarkable": 9066,
      "Ġdisturb": 9067,
      "Ġpoultry": 9068,
      "Ġdischarge": 9069,
      "ĠAfghanistan": 9070,
      "lahoma": 9071,
      "AF": 9072,
      "bles": 9073,
      "rong": 9074,
      "type": 9075,
      "whel": 9076,
      "Ġtied": 9077,
      "Ġsessions": 9078,
      "enh": 9079,
      "Ġcrown": 9080,
      "anium": 9081,
      "Ġgrief": 9082,
      "cho": 9083,
      "igue": 9084,
      "igible": 9085,
      "Ġstack": 9086,
      "ĠMET": 9087,
      "ĠPL": 9088,
      "opes": 9089,
      "ĠWales": 9090,
      "illion": 9091,
      "Ġheel": 9092,
      "rix": 9093,
      "ĠRoy": 9094,
      "Ġvice": 9095,
      "ntil": 9096,
      "ĠNY": 9097,
      "ĠNob": 9098,
      "ĠGiven": 9099,
      "Ġsearc": 9100,
      "Ġcholesterol": 9101,
      "ĠOper": 9102,
      "ĠOffic": 9103,
      "ĠJim": 9104,
      "Ġdisput": 9105,
      "Ġclar": 9106,
      "Ġaged": 9107,
      "Ġworker": 9108,
      "aware": 9109,
      "Ġinspect": 9110,
      "Ġexploration": 9111,
      "ĠAndrew": 9112,
      "Ġhumanity": 9113,
      "Ġ978": 9114,
      "Ġphysically": 9115,
      "ĠLeague": 9116,
      "Ġ[...]": 9117,
      "Ġpasses": 9118,
      "Ġanticip": 9119,
      "Ġidentical": 9120,
      "Ġproviders": 9121,
      "Ġfilter": 9122,
      "Ġdivide": 9123,
      "Ġ1940": 9124,
      "inois": 9125,
      "Ġirrit": 9126,
      "Ġvariations": 9127,
      "ilosop": 9128,
      "Ġturb": 9129,
      "Ġepis": 9130,
      "Ġreveals": 9131,
      "Ġvoters": 9132,
      "Ġestablishing": 9133,
      "ĠRoad": 9134,
      "Ġtransferred": 9135,
      "htm": 9136,
      "ĠPhysics": 9137,
      "ĠDemocratic": 9138,
      "ioxid": 9139,
      "Ġdiscoveries": 9140,
      "uzz": 9141,
      "Ġmanufacturers": 9142,
      "gregation": 9143,
      "olitan": 9144,
      "Ġoblig": 9145,
      "400": 9146,
      "94": 9147,
      "Ind": 9148,
      "da": 9149,
      "rical": 9150,
      "western": 9151,
      "atal": 9152,
      "Ġcotton": 9153,
      "Ġpush": 9154,
      "Ġfles": 9155,
      "Ġinherent": 9156,
      "oul": 9157,
      "entieth": 9158,
      "ĠCro": 9159,
      "ĠIce": 9160,
      "Ġorange": 9161,
      "thood": 9162,
      "ĠHear": 9163,
      "ĠDam": 9164,
      "ĠLog": 9165,
      "Ġchose": 9166,
      "Ġritual": 9167,
      "ĠOtt": 9168,
      "endar": 9169,
      "Ġincred": 9170,
      "Ġresc": 9171,
      "Ġresid": 9172,
      "Ġperpet": 9173,
      "avior": 9174,
      "Ġprey": 9175,
      "ĠChall": 9176,
      "Ġprovision": 9177,
      "Ġ46": 9178,
      "Ġcarb": 9179,
      "Ġproductivity": 9180,
[...]
